7:616,650,58,8,81,29,302,866,76,70
18:58,866,76,17,302,8,29,654,84,616
19:29,58,8,654,17,84,616,866,302,76
36:29,616,17,8,650,654,76,84,58,866
37:84,616,654,58,8,302,29,866,76,17
41:654,650,76,616,17,866,81,29,302,58
42:58,17,650,29,654,84,76,81,866,302
43:58,654,866,76,8,84,29,302,616,17
44:866,8,84,81,70,76,518,616,564,302
45:76,616,17,29,866,58,302,654,8,84
46:542,76,81,866,58,8,616,650,302,564
59:650,29,224,616,654,76,81,58,564,542
60:84,76,70,650,58,8,29,616,81,302
69:81,650,58,866,29,224,76,302,654,564
70:84,8,616,81,58,76,29,302,654,650
94:616,58,29,302,17,654,866,650,76,84
106:84,866,518,81,226,29,8,1102,70,224
115:518,866,29,8,224,354,81,58,226,138
116:8,616,654,76,84,58,866,17,302,29
142:1102,301,866,29,84,361,6,81,58,8
143:76,866,654,302,84,8,17,29,58,616
148:17,866,76,58,302,654,8,616,29,84
150:81,654,29,866,70,17,650,8,302,84
156:84,616,81,29,58,302,76,866,8,650
161:616,650,224,84,866,29,76,564,81,70
171:302,518,84,8,564,81,866,70,76,650
172:58,84,70,76,518,8,81,866,654,564
174:302,76,58,616,17,8,29,654,866,84
177:29,866,84,58,17,76,654,650,616,8
196:650,76,866,542,81,564,616,354,29,224
202:302,518,1102,8,542,354,138,224,58,866
211:616,17,84,76,8,866,654,29,58,302
217:616,866,76,302,58,8,29,654,84,17
220:76,866,58,29,302,616,8,84,17,654
223:76,8,654,616,866,29,84,650,302,58
224:654,76,29,302,58,8,866,17,84,616
225:654,84,8,302,81,616,866,29,76,58
228:654,8,76,302,84,29,17,616,650,58
229:361,518,15,58,508,84,81,866,736,1102
231:76,29,84,866,58,302,616,8,81,654
232:84,76,29,302,17,654,58,616,8,866
238:302,84,866,76,8,29,616,17,654,58
241:616,84,70,76,58,650,866,29,564,81
245:866,654,616,8,84,76,17,29,58,302
249:8,654,58,76,84,302,650,29,17,616
250:616,8,58,29,302,866,654,70,84,81
253:8,866,84,616,17,58,654,76,302,29
257:226,508,542,866,81,70,354,84,17,1102
272:616,76,58,29,8,866,654,650,70,81
273:866,224,70,17,654,650,81,354,302,76
288:70,866,58,17,81,616,29,84,650,76
290:17,302,8,654,616,84,866,76,58,29
291:654,866,58,650,76,302,84,616,29,17
292:564,866,542,58,70,654,224,616,81,76
294:542,564,76,224,29,8,302,866,70,17
328:29,616,654,866,8,650,84,76,58,302
331:76,58,8,654,616,650,17,84,302,866
345:8,654,29,616,866,84,76,302,17,58
361:29,58,70,650,81,616,518,8,564,76
376:76,866,650,616,84,17,302,29,8,58
384:76,866,84,17,29,8,654,302,616,650
401:616,866,650,70,354,58,81,29,542,226
402:84,654,518,542,8,302,81,866,70,564
410:58,76,866,302,29,8,616,654,17,84
448:58,616,866,8,84,76,650,654,302,29
449:8,866,84,654,58,17,29,302,616,650
450:29,224,866,1102,302,654,76,354,81,84
452:8,866,654,302,616,29,84,17,76,58
476:76,29,17,84,8,866,616,654,58,302
488:866,17,564,302,81,29,58,616,76,70
490:70,29,650,17,76,866,224,81,354,302
494:616,29,84,866,58,8,17,654,81,70
500:654,8,866,616,17,29,84,76,302,58
514:302,654,866,616,76,29,8,58,84,17
525:302,70,29,866,616,84,564,654,650,58
535:29,70,17,81,564,8,650,866,76,518
536:76,866,29,84,58,654,302,650,616,8
538:58,81,76,650,29,302,866,654,616,70
539:81,58,17,29,866,654,564,84,70,8
564:564,224,650,81,76,508,1102,8,84,518
582:81,29,518,84,70,564,76,866,616,354
585:58,866,302,8,616,76,84,29,17,654
590:8,29,70,518,81,654,564,650,866,76
601:8,58,302,654,616,17,866,84,76,29
618:76,84,17,866,302,29,616,58,654,8
624:302,654,866,8,58,29,76,616,84,17
627:8,654,17,58,866,302,76,29,84,616
628:29,616,302,84,654,58,76,17,866,8
632:654,8,58,616,84,17,76,302,29,866
633:650,654,84,76,866,29,58,302,8,81
634:84,58,17,8,76,654,29,616,866,302
646:76,8,58,302,650,84,616,29,654,17
666:8,58,654,616,76,866,29,84,302,17
667:866,654,8,302,84,17,76,616,58,29
669:17,654,302,8,866,84,616,58,29,76
678:58,17,650,866,84,654,29,302,8,76
680:8,17,29,58,84,654,650,616,81,866
681:654,616,29,17,866,76,302,84,8,58
682:58,76,866,654,29,17,302,84,616,8
683:58,76,616,654,302,866,29,8,17,84
684:8,654,58,84,29,616,76,302,866,17
715:616,84,302,866,17,8,654,76,29,58
716:866,17,8,76,654,616,58,84,302,29
741:8,76,866,616,654,58,29,84,17,302
750:354,866,138,76,8,226,564,301,81,1102
754:866,302,654,17,84,76,81,58,29,616
756:8,81,650,76,70,84,564,866,224,616
757:654,58,84,29,616,8,17,302,866,76
758:866,654,76,84,58,29,302,616,8,17
763:650,84,564,29,81,518,17,866,70,8
773:76,8,866,654,58,302,17,29,84,616
774:76,866,17,650,564,8,302,84,518,81
775:224,542,354,70,866,76,81,564,518,58
782:76,302,29,58,866,616,84,650,654,8
784:542,650,76,84,17,224,29,302,866,518
793:866,518,224,29,76,8,654,564,616,81
803:29,302,58,866,8,654,76,84,17,616
813:616,650,70,654,866,29,302,84,17,81
815:58,564,84,29,76,866,8,302,654,70
817:58,29,8,616,81,564,76,866,650,70
818:76,654,8,29,84,616,866,17,58,302
823:84,58,616,8,302,29,866,76,654,17
825:866,70,81,650,58,654,8,29,616,518
833:58,354,564,866,302,224,76,70,84,8
835:29,76,866,84,654,650,302,58,81,616
838:866,654,8,17,616,58,84,29,302,76
844:226,542,29,76,70,58,354,518,8,81
850:29,8,616,302,654,58,17,84,76,866
856:361,6,226,899,669,301,138,866,70,327
857:866,70,302,81,518,8,84,76,564,650
874:29,81,84,226,518,70,1102,58,302,76
891:302,17,29,650,616,654,8,58,76,84
899:8,616,654,58,76,17,84,866,302,29
900:616,302,654,866,84,8,17,76,29,58
911:8,84,866,302,29,654,76,58,616,650
918:654,866,8,650,17,29,616,58,302,84
925:866,58,84,654,29,76,616,8,17,302
926:564,8,84,81,76,650,58,302,70,866
937:29,76,302,866,58,70,81,654,616,650
949:58,654,29,302,8,616,84,17,76,866
964:8,84,616,302,17,866,76,58,654,29
970:58,29,866,76,302,17,84,616,654,8
977:17,301,508,81,518,29,354,650,736,224
981:76,8,654,866,29,616,58,302,84,17
982:8,76,866,58,616,84,29,654,17,302
984:58,616,84,29,76,866,8,17,654,650
992:76,84,58,866,302,29,8,616,654,17
993:58,81,564,76,616,224,518,654,29,84
998:866,84,76,302,654,650,616,58,17,29
1000:81,866,70,224,29,8,58,84,17,518
1007:29,866,81,8,70,17,564,654,84,518
1027:58,29,8,302,654,866,17,76,84,616
1028:650,17,58,76,29,81,866,616,302,70
1044:84,654,302,866,76,58,29,8,616,17
1045:58,8,81,70,76,564,84,866,17,650
1049:616,654,8,84,866,17,58,302,29,76
1068:616,866,76,302,29,17,654,84,58,8
1069:70,654,866,518,29,84,81,76,8,564
1070:58,564,76,84,866,81,17,70,650,616
1082:650,70,1102,518,81,84,542,226,224,866
1083:654,58,616,17,8,84,76,302,29,866
1088:29,866,84,17,616,58,654,8,650,302
1094:224,508,81,58,616,736,70,301,226,29
1116:650,654,616,84,866,58,76,8,29,302
1121:29,654,58,302,76,8,84,616,17,866
1125:866,58,84,76,616,29,650,302,564,654
1127:84,76,29,866,302,616,8,17,58,654
1132:58,17,29,84,76,866,654,302,8,650
1133:8,518,226,76,81,1102,224,508,650,354
1140:8,58,866,616,84,29,81,76,70,302
1141:8,654,17,84,616,76,58,866,302,29
1148:29,8,866,76,58,616,302,84,17,654
1153:17,29,650,654,76,58,564,81,616,866
1163:76,616,866,58,29,654,8,302,17,84
1166:84,17,76,8,866,58,654,29,302,616
1172:866,616,302,76,58,29,84,17,654,8
1192:76,866,8,650,58,17,81,29,616,302
1204:8,302,654,84,866,616,76,17,58,29
1208:8,84,866,302,58,654,29,76,616,17
1209:76,616,866,58,302,29,654,8,84,17
1234:17,654,8,866,76,616,84,29,58,302
1236:302,8,84,76,866,654,29,17,616,58
1245:302,76,84,616,866,29,650,8,58,654
1263:8,81,17,866,302,70,58,650,84,76
1267:866,76,8,650,84,58,654,616,302,29
1269:29,616,654,17,8,84,58,866,76,302
1288:866,8,84,29,654,76,17,616,58,302
1295:70,76,81,616,226,564,542,224,866,518
1296:650,17,866,654,58,29,81,84,76,8
1302:866,654,76,17,616,302,29,84,8,650
1305:29,17,76,302,8,58,650,84,81,866
1342:17,654,76,616,84,866,650,58,302,29
1382:654,8,58,302,29,866,17,616,84,76
1389:616,84,8,302,76,58,17,654,866,29
1391:84,654,302,29,58,76,616,866,8,17
1397:616,58,76,84,866,302,29,8,654,17
1402:8,650,84,302,81,616,70,58,866,76
1405:84,654,616,17,8,29,302,58,76,866
1407:76,654,866,17,616,58,302,29,8,84
1408:302,654,29,84,81,17,616,866,650,58
1409:354,616,564,508,542,8,81,138,70,226
1412:8,654,58,616,84,76,17,866,29,302
1413:289,736,508,542,285,899,101,15,81,6
1418:564,866,736,650,76,542,224,138,654,81
1419:76,58,17,866,302,616,8,654,84,29
1420:81,616,29,866,654,8,76,302,650,58
1427:354,564,8,81,518,866,29,224,17,84
1430:58,76,84,302,654,17,29,8,866,650
1431:58,70,8,866,650,81,76,616,654,84
1435:616,84,58,302,81,564,76,866,224,29
1437:17,616,58,84,302,866,29,8,654,76
1441:654,8,616,76,17,84,866,29,58,302
1447:654,8,58,17,302,76,866,29,84,616
1448:302,76,654,84,8,17,58,29,616,866
1457:8,302,616,866,29,654,58,76,84,17
1458:616,84,302,866,70,58,81,650,76,17
1469:84,224,866,518,58,616,564,302,81,76
1477:616,58,654,17,76,84,29,302,650,866
1486:616,17,654,8,84,76,58,866,29,302
1490:866,17,84,58,76,616,29,8,654,302
1491:616,84,866,8,81,654,76,650,58,302
1500:302,76,84,564,224,650,518,70,29,58
1503:616,650,58,81,654,564,76,8,70,866
1517:58,76,302,866,29,8,616,654,84,17
1518:58,29,84,8,866,654,17,616,302,76
1535:84,58,302,29,81,654,542,866,650,70
1551:81,616,354,518,866,650,542,8,70,508
1552:616,17,76,866,84,8,302,58,29,654
1553:8,58,654,616,29,84,17,76,866,302
1559:76,8,654,616,29,81,650,84,302,866
1560:84,302,70,76,650,58,29,17,866,81
1561:70,616,866,224,58,76,84,29,17,518
1562:70,564,518,8,29,616,650,542,654,224
1569:84,302,17,76,58,616,866,29,654,8
1570:866,29,616,84,654,302,17,76,58,8
1588:302,616,84,866,8,76,654,58,17,29
1589:650,616,866,8,58,654,81,84,76,70
1591:17,76,8,84,302,58,866,654,616,29
1601:866,76,654,84,58,302,29,616,8,17
1602:58,8,654,866,302,76,616,29,84,17
1629:58,17,616,84,866,302,654,8,76,29
1634:302,76,866,58,29,616,654,84,17,8
1642:58,76,8,81,564,650,70,866,654,302
1653:58,302,866,84,29,654,76,8,616,17
1654:866,81,302,29,650,84,564,70,518,8
1655:8,81,29,70,76,866,224,654,650,542
1668:650,29,70,564,616,76,8,84,81,866
1681:866,84,17,70,8,650,616,81,29,58
1703:29,58,866,654,81,616,76,84,650,302
1721:84,29,616,866,8,654,76,302,17,58
1727:654,616,29,302,8,58,866,76,84,17
1728:650,84,58,70,302,76,8,866,81,616
1745:866,58,302,29,76,654,8,84,616,17
1746:654,76,616,58,8,866,17,29,302,84
1751:84,58,616,29,650,76,8,302,654,866
1756:8,81,29,654,616,58,866,76,650,302
1758:8,654,76,616,84,866,17,302,58,29
1761:29,84,654,76,8,616,17,58,866,302
1767:866,81,58,70,564,8,616,84,518,76
1779:616,84,76,866,58,29,654,8,17,302
1780:76,616,84,8,302,17,29,654,866,58
1783:17,84,29,58,866,76,650,8,302,81
1787:81,70,616,866,354,29,564,76,226,518
1788:84,8,654,302,650,58,17,616,866,29
1794:866,84,17,76,616,654,302,8,29,58
1796:654,542,226,29,650,224,84,70,1102,8
1803:616,302,58,29,76,866,84,17,654,8
1820:302,8,84,29,58,76,866,654,616,17
1821:17,302,654,866,29,58,76,84,8,616
1822:81,866,654,58,29,302,17,616,8,84
1823:84,76,542,650,17,81,564,224,866,70
1840:866,564,616,226,81,542,224,354,70,650
1841:866,76,29,654,302,58,8,84,17,616
1842:650,84,29,17,58,616,8,866,76,302
1850:616,84,76,58,17,866,654,8,29,302
1853:8,654,84,76,616,17,29,866,58,302
1854:650,81,76,866,17,302,70,654,84,8
1862:564,224,866,81,650,542,616,302,70,226
1880:84,58,654,8,616,76,866,29,17,302
1883:8,58,81,302,76,866,29,70,650,654
1890:866,616,8,76,650,58,654,84,302,29
1891:8,654,84,866,76,58,616,29,302,17
1893:866,58,616,29,302,654,84,70,81,76
1894:58,8,81,654,866,84,564,29,616,70
1911:29,616,76,866,302,58,8,17,654,84
1912:302,654,866,8,58,29,17,76,616,84
1913:616,8,58,17,302,866,654,84,29,76
1930:654,302,76,866,8,616,58,29,84,17
1932:58,76,866,29,654,302,17,8,84,616
1950:301,542,81,245,361,238,15,669,224,508
1951:616,76,84,58,17,866,302,654,29,8
1952:70,564,84,8,17,616,866,518,542,76
2005:81,224,29,866,564,650,76,70,302,518
2017:654,8,616,17,29,84,76,866,58,302
2025:58,616,302,654,8,29,17,866,84,76
2030:866,616,76,58,29,302,8,654,84,17
2034:58,302,8,76,654,616,866,29,17,84
2038:616,302,17,29,866,76,58,654,84,8
2046:29,866,17,8,58,654,302,76,84,616
2058:654,8,616,302,17,76,29,866,84,58
2068:866,29,616,76,17,302,84,58,654,8
2070:29,58,616,650,302,84,866,76,654,81
2071:616,354,70,650,866,76,58,302,224,518
2072:29,616,58,866,76,81,650,70,302,654
2074:76,29,302,17,654,8,84,616,866,58
2075:81,8,76,866,70,564,654,650,84,302
2076:616,302,8,866,84,654,17,76,58,29
2077:58,81,616,29,17,564,518,654,76,650
2080:84,58,654,70,650,76,81,17,29,866
2085:8,58,616,302,29,17,76,866,654,84
2097:866,302,70,616,564,81,29,84,58,654
2112:17,76,84,58,866,29,302,8,654,616
2115:616,8,17,58,654,84,866,302,76,29
2116:302,84,654,58,29,866,17,8,76,616
2123:866,8,564,654,616,58,76,29,650,17
2135:58,866,8,76,302,84,29,17,616,654
2141:76,866,8,654,58,302,29,84,17,616
2147:17,654,8,866,302,76,84,29,616,58
2154:866,654,8,302,616,17,58,29,650,84
2160:76,302,8,650,81,17,29,564,84,70
2162:654,17,616,302,58,84,29,76,8,866
2170:29,58,81,84,76,650,8,866,17,302
2177:616,866,76,84,17,8,58,29,302,654
2184:866,564,8,650,58,76,616,70,84,81
2185:84,58,8,654,17,616,302,866,29,76
2187:8,17,302,654,84,29,616,866,76,58
2211:76,302,17,616,58,29,8,654,84,866
2223:17,8,84,616,654,866,302,58,29,76
2243:17,76,8,654,84,616,866,29,58,302
2244:84,616,29,8,302,17,654,81,58,866
2247:650,29,616,866,70,81,302,58,84,654
2250:17,866,76,654,58,616,302,84,8,29
2253:654,866,29,17,58,8,84,616,76,302
2260:8,654,616,58,302,76,29,866,84,17
2261:58,616,29,81,224,654,76,650,302,70
2262:17,654,8,84,76,616,58,866,302,29
2290:542,518,70,226,81,866,1102,224,29,650
2291:866,17,616,81,518,76,8,84,564,29
2293:650,654,866,76,616,29,17,84,302,58
2301:654,58,29,8,17,84,866,616,76,302
2302:58,84,76,8,866,29,616,654,17,302
2304:58,29,302,866,76,8,84,654,616,17
2318:654,84,564,226,81,866,29,1102,76,736
2325:8,84,650,76,654,616,58,302,866,29
2335:302,866,8,654,84,29,81,17,616,70
2343:866,17,76,29,8,58,654,302,84,616
2346:84,866,8,76,654,29,302,616,58,17
2347:76,58,302,866,29,616,84,17,654,8
2348:76,866,17,302,654,84,616,8,650,58
2362:8,616,654,84,866,17,302,58,76,29
2363:8,650,616,866,81,29,17,302,76,84
2364:866,302,76,81,616,29,8,650,84,70
2369:58,17,616,654,76,8,84,29,866,302
2373:84,76,302,17,650,654,866,616,29,58
2381:616,84,29,76,58,866,302,17,654,8
2382:866,654,58,29,17,616,8,84,302,650
2384:76,866,8,29,654,58,616,302,84,17
2385:58,84,866,302,650,616,29,8,17,76
2392:616,8,84,17,654,76,866,58,29,302
2393:76,58,616,8,302,17,29,866,654,84
2394:81,58,76,866,84,302,650,654,616,29
2395:81,17,8,76,84,616,564,866,70,650
2399:29,302,58,76,866,616,84,654,17,8
2405:654,76,302,8,84,58,650,866,29,17
2407:58,302,654,8,76,84,616,866,29,17
2408:76,616,866,84,29,654,302,58,8,650
2419:866,654,58,302,8,84,616,29,17,76
2429:58,8,302,29,76,866,84,654,616,17
2447:81,29,564,84,8,224,70,518,76,866
2452:866,17,84,29,76,58,302,616,654,8
2453:302,616,866,76,654,29,8,84,58,17
2454:8,654,866,616,84,29,76,58,17,302
2456:84,866,616,650,29,17,8,58,76,81
2461:542,29,301,226,81,866,736,70,518,138
2464:81,58,616,8,654,564,518,76,650,224
2465:616,866,70,76,81,650,58,8,84,564
2469:302,650,84,616,29,58,8,81,76,866
2489:616,17,302,654,84,866,58,8,76,29
2491:302,76,8,29,654,866,84,616,58,17
2499:8,866,76,302,29,58,654,84,17,616
2500:58,29,616,650,70,84,76,81,8,654
2501:8,76,866,302,58,29,654,616,84,17
2505:84,76,58,616,29,81,654,866,650,17
2510:866,654,8,616,29,76,302,17,58,84
2515:84,58,29,616,8,650,302,654,866,17
2518:29,58,616,76,866,302,17,654,8,84
2520:84,616,76,29,302,17,58,650,866,654
2521:866,8,29,76,654,650,58,302,84,616
2524:866,654,76,302,8,650,58,616,84,17
2536:518,8,81,84,70,76,302,564,17,866
2541:84,76,58,650,29,81,302,654,866,8
2547:616,58,17,29,84,8,302,76,866,654
2553:17,29,616,8,302,84,58,76,654,866
2558:29,76,58,8,616,84,17,866,650,81
2560:76,58,29,81,70,84,616,866,564,224
2563:650,76,58,654,84,29,81,70,866,302
2573:8,70,76,81,58,866,29,84,616,518
2591:58,866,654,8,17,84,76,29,616,302
2596:76,58,84,654,302,650,17,616,29,866
2597:654,8,616,17,302,29,84,58,866,76
2601:302,8,866,76,17,58,84,29,616,650
2604:58,866,29,84,302,76,654,616,8,17
2611:58,84,866,76,616,29,654,8,650,302
2612:84,866,81,302,654,17,58,70,76,29
2615:29,650,564,81,866,84,70,76,518,8
2625:654,76,58,866,29,8,302,84,616,17
2626:866,564,76,616,81,70,302,224,518,84
2634:76,58,302,616,654,84,8,29,17,866
2636:650,81,76,654,8,84,616,866,58,29
2639:302,654,76,866,8,84,17,58,29,616
2650:29,866,654,616,58,8,76,17,302,84
2661:866,76,302,29,616,58,654,84,8,17
2663:866,8,58,29,654,302,616,84,17,76
2666:8,654,616,58,866,302,29,17,84,76
2676:8,866,76,654,650,17,616,84,58,302
2689:58,866,29,302,17,76,8,654,84,616
2693:8,654,58,616,17,29,84,302,76,866
2708:58,8,29,84,302,650,616,654,17,866
2709:58,76,8,654,17,84,616,29,866,302
2713:76,654,84,866,8,616,58,17,302,29
2715:76,84,302,17,29,58,616,8,866,654
2716:29,76,58,866,302,8,654,616,17,84
2727:616,650,58,8,70,84,866,81,29,76
2730:654,8,650,866,76,58,616,84,29,17
2731:84,866,518,616,81,76,29,564,8,650
2734:866,616,654,29,8,17,84,76,302,58
2735:76,17,654,302,58,866,650,29,616,84
2737:8,654,29,17,302,84,616,58,76,866
2745:302,76,654,8,616,84,650,17,58,29
2746:84,866,58,616,17,76,654,29,8,302
2748:8,616,654,84,58,17,866,29,302,76
2756:76,84,654,302,29,616,58,866,650,8
2760:84,81,8,224,70,650,564,29,518,76
2776:616,866,84,76,17,8,654,302,58,29
2799:8,302,866,17,654,84,29,58,76,616
2802:654,8,29,616,84,650,866,58,76,302
2803:866,76,58,29,654,17,302,8,84,616
2804:8,616,654,17,76,58,29,866,302,84
2805:616,29,17,8,84,866,654,76,302,58
2812:81,29,866,302,8,564,654,76,650,70
2815:654,616,58,302,84,8,17,29,866,76
2827:302,8,29,58,866,616,654,76,84,17
2831:84,866,29,58,654,518,564,81,76,8
2846:76,29,84,654,866,70,650,616,302,81
2848:81,8,76,17,866,650,84,29,654,616
2853:17,84,8,76,654,58,866,29,616,302
2854:866,76,616,29,84,302,58,8,650,654
2857:8,654,866,76,84,58,616,29,302,17
2858:866,84,70,650,76,224,564,17,29,81
2861:76,17,84,866,58,654,8,616,302,29
2871:866,8,58,302,84,17,76,616,654,29
2907:650,84,866,302,76,58,616,8,654,81
2912:616,58,654,84,8,29,17,76,866,302
2914:76,29,17,654,302,650,81,8,58,866
2924:8,654,866,76,58,616,17,29,84,302
2925:616,654,866,58,84,302,76,29,8,17
2947:654,58,866,8,76,616,17,84,302,29
2951:866,76,58,654,29,8,616,302,84,17
2959:616,29,654,8,84,76,866,17,302,58
2960:84,76,17,58,8,29,654,616,302,866
2963:76,84,17,866,58,29,302,8,654,616
2965:654,616,8,866,17,302,76,84,29,58
2967:616,8,84,58,76,866,302,650,29,654
2970:654,58,302,866,17,29,76,8,616,84
2977:866,616,84,654,76,8,17,29,302,58
2981:518,29,84,76,564,81,866,70,650,8
2989:866,84,616,302,76,29,8,17,654,58
2990:654,8,616,84,17,866,76,58,29,302
3002:58,302,8,866,654,616,17,29,84,76
3004:302,29,76,58,866,17,8,84,616,654
3011:866,29,17,84,616,8,654,76,58,302
3013:616,302,84,58,866,29,76,17,654,8
3037:76,58,616,84,654,302,866,29,8,17
3038:866,8,76,84,58,29,616,302,654,17
3044:76,8,650,866,654,84,616,58,29,302
3070:17,302,650,866,29,58,8,616,654,84
3081:84,302,76,866,58,654,17,616,8,29
3100:84,866,76,81,650,302,70,29,8,616
3102:8,866,76,302,58,616,654,29,84,17
3105:58,29,17,654,866,84,650,8,76,302
3107:616,654,8,302,29,84,17,866,58,76
3110:8,17,866,76,58,616,29,654,84,302
3111:8,58,76,29,84,866,654,302,650,616
3113:654,76,866,8,17,302,616,29,58,84
3121:564,899,101,70,15,81,542,361,8,6
3125:8,654,302,29,616,866,58,17,84,76
3126:8,29,654,58,17,616,302,866,76,84
3129:84,866,302,70,76,81,616,8,29,564
3139:302,29,17,616,650,76,84,8,654,58
3144:654,84,58,76,29,17,616,866,650,302
3152:616,654,29,84,58,302,866,8,17,76
3166:58,29,866,17,76,302,84,616,8,654
3167:866,8,302,29,17,654,76,616,84,58
3169:616,654,29,650,84,76,8,866,58,302
3170:654,58,29,866,302,76,8,84,616,17
3172:866,76,8,654,29,302,616,17,58,84
3176:84,8,866,518,76,616,70,58,650,564
3183:58,616,84,76,866,654,29,8,17,650
3184:616,17,866,84,8,302,654,76,29,58
3193:866,518,70,76,224,81,8,354,226,58
3195:866,58,76,302,29,84,654,8,17,616
3220:650,76,866,564,616,518,70,84,81,8
3229:302,8,76,866,29,616,58,654,17,84
3234:81,302,58,76,650,616,866,70,29,654
3237:616,84,76,17,8,654,302,866,29,58
3238:616,302,84,17,866,58,29,654,76,8
3239:866,8,58,81,29,616,84,76,17,650
3246:616,302,654,29,76,866,58,8,84,17
3258:650,8,58,81,654,84,29,17,70,76
3263:76,616,866,302,84,8,17,654,29,58
3264:302,29,76,654,866,58,8,616,84,17
3277:58,866,76,8,84,302,654,29,616,17
3279:654,8,84,616,29,81,58,17,650,302
3295:654,17,76,8,866,58,29,302,84,616
3305:654,58,29,8,616,302,76,866,84,17
3306:8,58,76,17,302,866,616,84,654,29
3308:84,58,616,76,17,654,29,8,302,866
3309:302,81,650,84,564,616,76,29,70,866
3319:866,58,654,76,302,29,8,616,17,84
3320:8,17,616,654,76,84,866,302,58,29
3328:81,58,29,84,650,866,8,616,564,76
3329:58,29,654,616,866,8,76,17,302,84
3335:58,84,650,81,616,654,8,70,866,76
3346:866,58,17,8,76,654,302,84,616,29
3352:58,866,302,76,29,616,17,654,84,8
3353:58,866,654,17,29,616,84,8,302,650
3360:58,29,302,84,866,76,616,654,8,650
3374:58,866,8,616,76,654,17,84,302,29
3376:654,84,616,866,17,58,8,302,76,29
3383:866,84,8,76,58,29,302,654,17,616
3386:58,84,76,866,302,29,616,17,8,654
3411:866,302,654,76,17,84,616,8,58,29
3412:84,616,17,654,8,58,302,866,76,29
3413:302,58,29,17,84,654,866,8,616,76
3416:616,8,76,866,58,302,29,654,17,84
3419:76,8,81,84,650,17,29,654,866,616
3421:564,70,866,650,518,81,76,8,84,17
3423:866,76,8,58,654,29,302,616,17,84
3426:866,302,29,58,17,76,84,616,8,654
3428:84,866,654,8,650,302,81,17,70,58
3429:76,302,654,81,564,84,8,70,518,650
3431:58,8,616,84,654,76,17,866,302,29
3432:58,302,8,650,616,866,654,84,17,29
3450:866,616,76,58,8,654,29,84,17,302
3453:302,616,29,76,58,84,866,17,8,654
3475:8,17,84,616,654,866,76,29,302,58
3478:70,81,224,866,226,1102,650,8,84,518
3479:76,654,616,84,866,17,58,302,29,8
3480:616,866,8,17,650,84,29,654,302,76
3490:84,508,542,1102,70,226,17,224,354,81
3500:84,866,654,616,70,8,650,81,58,29
3514:302,616,8,29,866,564,650,81,84,70
3529:866,616,76,58,17,8,654,84,302,29
3546:8,650,866,654,58,29,17,302,84,76
3547:84,76,8,302,616,81,866,29,654,70
3551:654,17,84,8,616,302,29,76,866,58
3557:76,17,8,84,866,58,29,616,302,654
3572:58,302,654,616,29,8,866,84,17,76
3579:866,58,70,616,76,650,17,81,29,8
3580:616,866,84,76,654,8,302,29,58,17
3593:616,76,81,70,866,654,17,29,58,84
3599:616,302,8,654,866,84,76,58,29,17
3609:8,654,29,76,84,58,302,650,17,616
3610:58,866,650,616,17,29,8,302,76,654
3613:616,17,654,76,84,866,8,58,302,29
3628:616,17,29,84,302,58,8,866,76,654
3656:8,650,17,654,616,84,58,29,866,76
3657:76,650,84,58,866,8,70,17,616,81
3663:70,76,866,564,354,224,226,650,542,58
3674:302,81,866,29,8,58,650,76,84,70
3684:17,76,616,84,8,654,29,58,866,302
3685:866,76,654,84,616,302,17,58,8,29
3686:58,8,17,302,29,84,76,654,866,616
3692:8,76,84,650,616,17,302,29,654,866
3694:616,76,29,17,866,302,58,84,654,8
3701:58,8,616,654,29,302,650,866,81,76
3702:58,29,616,84,17,8,654,302,76,866
3717:542,866,17,564,70,58,76,84,29,654
3721:84,58,70,81,76,564,616,650,654,866
3728:58,8,616,866,29,76,302,654,17,84
3735:138,224,29,76,15,226,301,361,8,70
3736:616,8,81,58,29,302,650,84,70,654
3737:81,654,866,84,29,58,302,650,616,8
3751:58,866,616,76,17,654,29,8,84,650
3752:616,8,81,76,84,58,29,650,302,17
3800:542,654,29,224,866,1102,302,58,354,81
3811:616,17,8,866,84,58,654,76,302,29
3820:76,616,17,650,8,564,58,70,81,866
3840:650,81,654,564,8,58,616,518,866,76
3846:8,84,650,58,866,302,654,81,70,17
3849:76,8,866,58,616,81,70,518,650,564
3850:29,70,81,58,616,76,564,518,654,866
3857:76,58,616,866,654,302,81,650,8,29
3859:650,8,616,302,76,17,84,866,29,58
3862:866,76,654,8,302,17,58,29,84,616
3888:866,58,616,654,17,84,76,302,29,8
3911:76,616,866,58,302,17,84,29,654,8
3921:616,84,8,866,654,17,76,58,29,302
3929:616,84,866,8,302,654,650,81,58,29
3930:866,76,654,58,29,84,17,650,616,8
3934:76,302,654,616,866,29,84,17,58,8
3947:866,58,81,84,302,654,650,616,70,29
3950:70,81,8,518,866,84,654,542,564,302
3962:76,84,866,17,302,654,616,58,29,8
3974:8,76,616,58,866,654,84,302,17,29
3975:29,76,17,302,650,58,8,84,654,866
3988:302,17,58,29,76,866,616,654,84,8
4001:654,302,8,84,76,29,17,58,616,866
4006:866,654,8,616,76,58,29,84,302,17
4007:17,58,76,302,654,84,866,29,616,8
4008:76,58,29,84,17,8,866,302,616,654
4009:654,58,8,616,17,76,302,84,866,29
4028:616,866,84,76,8,302,29,58,654,17
4031:8,654,58,616,29,17,302,84,866,76
4035:866,8,654,29,76,84,616,17,58,302
4053:17,58,29,654,616,8,84,302,76,866
4064:70,866,76,564,8,518,650,84,654,302
4067:654,70,650,58,81,76,8,84,866,17
4068:58,76,866,654,302,29,8,616,17,84
4069:1102,354,138,518,650,226,542,508,224,70
4075:76,866,29,58,84,17,616,654,8,302
4076:616,8,654,84,17,76,58,29,302,866
4084:76,29,654,17,650,8,84,70,81,866
4091:650,8,58,76,654,616,866,302,29,17
4098:654,302,866,17,76,616,29,8,58,84
4103:58,302,8,866,654,84,616,29,650,76
4104:866,76,616,302,8,58,29,84,654,650
4124:76,616,866,302,84,29,58,8,654,17
4132:616,29,17,58,76,866,302,84,654,8
4134:654,8,76,17,866,29,58,302,84,616
4138:58,654,29,302,866,616,8,17,76,84
4140:302,866,616,654,17,84,58,29,76,8
4149:58,866,29,17,76,302,654,84,8,616
4158:866,302,58,8,654,650,29,84,616,17
4164:616,866,8,654,17,84,29,76,302,58
4167:76,84,866,654,302,8,58,29,616,17
4171:866,302,76,58,29,8,616,654,84,17
4177:654,8,616,58,17,866,84,29,302,76
4179:58,866,8,76,17,81,302,650,616,84
4184:81,8,70,84,866,564,650,76,518,616
4190:8,866,58,29,76,654,84,616,17,302
4209:616,76,8,654,29,866,17,84,58,302
4210:866,58,76,654,8,616,84,17,302,29
4211:8,654,17,84,616,58,29,76,866,302
4213:542,564,81,654,866,84,224,76,302,70
4223:616,8,654,866,58,17,302,76,84,29
4237:29,564,650,76,616,70,58,302,866,654
4242:84,58,654,17,650,616,29,81,76,302
4248:76,84,866,29,58,302,654,616,8,17
4249:650,84,29,302,866,616,8,654,17,58
4265:58,302,616,84,654,29,8,17,76,866
4269:29,81,650,616,17,866,58,8,84,564
4273:302,866,8,76,58,29,654,650,616,84
4275:58,866,81,17,84,76,29,616,654,8
4277:29,58,70,654,76,518,81,17,564,8
4281:8,866,76,650,17,81,84,302,58,29
4301:8,17,654,76,650,29,866,616,84,302
4303:84,81,29,654,616,866,302,58,17,650
4304:564,518,8,1102,84,70,650,302,542,226
4344:8,17,866,302,650,654,76,29,58,84
4353:17,76,654,29,302,8,58,616,84,866
4357:302,8,58,616,29,650,84,17,654,866
4365:654,8,29,84,302,17,616,58,76,866
4371:58,29,866,616,76,84,302,8,654,17
4372:76,654,58,866,84,650,302,29,616,8
4399:866,81,58,616,84,76,70,650,17,564
4400:654,8,302,650,866,84,17,616,29,58
4407:650,616,866,8,84,70,81,76,29,58
4424:8,76,29,616,866,302,84,17,58,654
4426:654,29,58,76,8,17,866,616,84,302
4436:76,58,866,302,84,29,654,616,8,17
4453:302,58,866,29,76,654,616,8,17,84
4457:29,17,302,58,866,76,616,8,654,84
4458:8,58,17,76,866,616,29,302,654,84
4466:70,8,564,650,84,518,17,81,224,76
4469:70,8,866,76,81,17,84,650,29,654
4482:58,866,81,70,84,8,302,564,29,17
4507:866,654,81,84,29,616,302,650,58,76
4514:8,654,84,650,616,866,58,17,76,29
4517:564,866,650,224,29,616,302,58,81,518
4519:17,84,866,654,8,616,302,58,29,76
4522:8,616,84,866,58,76,17,302,654,29
4530:8,29,866,17,84,81,654,58,302,650
4537:76,616,84,8,302,654,17,58,29,866
4543:29,866,654,8,302,616,17,76,58,84
4562:84,58,616,650,866,17,654,302,29,8
4578:866,29,81,76,564,17,650,70,8,84
4588:650,29,76,8,58,302,866,17,84,616
4618:866,302,654,58,616,76,8,29,84,17
4633:76,84,616,17,654,8,58,866,302,29
4637:616,17,654,866,302,84,76,58,29,8
4640:564,29,84,81,70,8,58,866,76,650
4641:302,866,76,654,616,29,58,8,17,84
4642:76,866,654,29,8,564,302,70,650,616
4651:76,29,616,58,654,866,302,84,17,8
4665:58,866,81,654,70,84,29,616,8,650
4666:8,616,654,84,76,866,302,17,58,29
4682:616,84,302,654,58,29,76,17,8,866
4687:84,29,58,302,616,866,76,650,8,81
4692:29,650,84,616,302,654,866,76,8,58
4696:29,8,76,84,616,866,17,654,58,302
4702:76,654,8,302,616,84,17,58,29,866
4730:76,84,58,8,654,616,650,866,302,29
4736:8,616,84,58,29,866,302,76,650,654
4745:224,302,84,226,564,17,81,518,542,866
4749:58,8,866,654,29,650,17,302,84,616
4751:76,654,29,17,302,58,84,8,616,866
4760:302,76,654,616,8,866,58,29,84,17
4762:866,76,654,616,84,17,8,302,650,58
4767:8,866,58,84,302,650,616,29,17,654
4774:70,650,518,58,81,76,616,866,564,542
4779:866,29,76,58,84,17,616,302,654,8
4788:866,564,58,81,302,70,654,29,650,616
4789:76,654,84,616,866,17,58,8,29,302
4794:76,84,58,866,302,29,616,8,650,654
4796:302,866,76,84,8,29,58,17,616,654
4797:81,224,899,736,518,1102,508,564,361,866
4802:29,866,302,8,76,654,650,58,84,616
4816:616,8,76,84,58,866,302,29,17,654
4831:8,616,81,650,58,29,654,866,76,84
4834:17,654,616,650,866,8,84,302,58,76
4852:302,650,84,8,616,654,866,29,58,17
4863:58,76,302,17,616,84,654,8,29,866
4870:616,76,654,84,17,29,8,58,302,650
4875:29,8,58,84,76,70,866,616,81,654
4889:81,650,58,564,616,654,302,866,70,8
4894:29,302,58,616,8,866,76,84,654,17
4898:76,302,616,29,654,8,58,866,84,17
4910:866,616,650,76,29,84,654,302,58,8
4919:29,866,76,58,302,654,616,17,84,8
4926:84,76,58,866,616,302,650,29,654,8
4934:8,84,76,58,654,29,866,302,17,616
4935:302,76,616,866,84,29,8,654,58,17
4944:8,302,616,29,654,17,58,84,866,76
4946:58,616,29,17,84,76,8,302,654,866
4949:76,58,302,616,866,17,84,8,29,654
4951:616,17,76,84,8,866,654,302,29,58
4956:29,650,8,84,866,654,76,17,616,58
4961:616,84,17,8,654,866,76,58,29,302
4984:302,866,76,17,29,654,58,616,8,84
4986:8,654,29,76,81,84,866,17,616,650
4991:616,84,29,866,76,8,654,302,58,17
4992:76,654,8,616,866,17,84,58,29,302
4998:29,58,650,866,17,8,81,302,76,84
5001:58,17,650,616,29,84,866,76,302,81
5002:76,302,866,29,58,17,84,8,616,654
5006:58,616,29,302,76,866,654,8,84,17
5007:302,654,76,84,8,866,58,29,17,616
5011:29,76,8,84,654,616,17,302,58,866
5015:17,58,654,8,76,84,616,866,302,29
5018:866,616,650,58,70,654,76,29,564,84
5031:650,81,58,84,654,302,866,76,29,70
5039:616,8,29,654,84,76,17,866,58,302
5040:84,76,29,17,616,866,58,654,650,302
5047:76,8,58,29,654,616,17,866,302,84
5048:866,17,8,58,29,302,76,616,654,84
5079:8,81,70,616,224,518,564,58,84,76
5086:616,17,58,8,76,866,654,302,29,84
5088:8,654,616,17,84,29,58,302,866,76
5089:8,866,58,654,84,76,17,29,616,302
5090:616,76,866,8,58,302,29,17,654,84
5097:8,17,58,84,654,616,29,866,76,302
5107:866,8,654,76,616,17,58,84,29,302
5108:76,866,84,8,616,654,17,302,58,29
5119:76,616,302,84,866,654,29,58,81,650
5120:76,84,17,58,8,866,654,29,616,302
5129:8,17,58,29,84,866,654,302,76,616
5147:29,58,76,81,8,84,650,866,70,654
5148:17,654,58,29,302,616,84,76,866,8
5176:616,8,17,29,654,76,650,84,302,866
5180:616,58,8,29,302,76,17,84,866,654
5188:654,866,58,8,76,29,302,616,17,84
5202:76,58,29,17,302,654,866,8,616,84
5207:76,8,866,58,616,302,29,84,654,17
5208:650,542,518,564,866,17,224,84,76,81
5214:17,302,616,84,76,29,8,654,866,58
5217:866,17,8,302,58,29,84,76,616,654
5247:866,58,616,8,654,29,76,302,84,17
5271:866,654,302,58,29,8,76,17,616,84
5276:866,302,8,17,76,616,58,29,84,654
5279:650,58,302,29,8,518,224,564,81,17
5288:302,76,8,616,84,29,866,58,654,650
5294:654,616,302,8,29,84,866,17,76,58
5299:8,616,58,650,654,866,564,518,84,70
5300:8,29,302,76,616,58,866,654,84,17
5306:616,17,76,58,8,84,654,302,866,29
5307:8,654,17,84,866,76,58,302,29,616
5309:616,654,866,58,84,17,29,8,76,302
5323:302,58,17,654,84,8,866,29,616,76
5325:8,866,616,302,654,29,84,17,58,76
5329:29,654,58,302,17,8,866,76,84,616
5335:866,58,76,302,8,650,616,29,654,81
5358:58,302,76,8,616,654,866,29,17,84
5361:8,76,616,650,302,866,84,29,17,58
5364:654,8,650,302,29,866,616,84,58,17
5378:302,224,518,70,866,29,81,8,76,650
5385:650,81,76,564,8,58,866,518,616,224
5387:17,224,84,650,76,354,8,866,518,564
5397:29,518,84,8,866,81,650,616,76,564
5398:76,616,8,654,58,29,84,866,302,17
5403:84,76,8,29,70,650,81,866,654,58
5425:17,866,654,29,84,8,616,650,76,302
5433:654,866,84,29,58,616,70,81,8,76
5434:866,76,616,58,302,17,8,29,654,84
5435:76,616,866,70,650,81,29,17,654,58
5436:58,70,650,29,76,81,302,8,616,654
5438:654,650,616,76,29,302,81,866,58,70
5449:76,58,616,866,302,29,8,654,84,17
5455:58,17,866,76,29,84,8,302,654,650
5456:616,866,302,58,654,84,17,76,29,8
5458:84,8,654,58,302,866,29,616,17,76
5462:650,8,616,58,84,302,654,29,76,866
5472:17,866,8,84,616,654,76,302,58,29
5474:58,70,8,650,518,76,81,84,564,302
5477:654,76,8,866,84,58,302,17,616,29
5478:58,8,866,84,76,616,17,654,29,302
5479:866,654,29,8,616,76,302,58,17,84
5480:8,76,70,84,58,866,650,81,564,616
5499:17,866,616,76,29,84,654,8,58,302
5500:8,84,866,616,29,17,76,58,302,654
5502:58,616,17,866,84,8,76,302,29,654
5512:866,58,8,76,302,29,616,654,17,84
5527:84,58,302,616,29,866,650,76,654,8
5529:58,76,302,866,8,654,29,616,17,84
5530:29,650,58,76,866,8,302,654,84,17
5535:866,8,654,76,58,302,17,84,616,29
5536:302,76,8,654,58,616,29,866,17,84
5542:17,654,866,84,58,302,616,8,76,29
5551:616,58,81,8,84,302,650,866,654,70
5562:8,650,302,84,76,616,58,17,866,29
5580:58,616,29,302,76,866,650,84,81,654
5584:866,17,616,29,8,58,76,302,654,84
5601:8,76,84,70,866,302,518,17,81,58
5611:84,866,81,58,302,654,29,616,8,76
5632:17,84,654,58,866,81,564,8,76,302
5640:84,58,17,654,866,8,302,29,616,76
5644:58,302,8,29,76,17,84,866,616,654
5645:8,866,654,58,76,616,17,84,302,29
5656:650,58,29,616,76,302,81,866,654,70
5666:17,76,84,8,616,58,29,866,302,654
5683:8,616,302,866,654,17,84,76,29,58
5691:866,654,302,616,8,17,29,84,76,58
5696:654,8,616,17,84,302,58,866,29,76
5702:70,866,81,650,518,76,8,616,84,564
5707:654,8,17,866,76,58,29,302,84,616
5717:616,58,866,8,654,17,84,76,29,302
5718:654,8,84,58,616,17,29,650,76,302
5721:17,654,616,8,866,84,76,29,302,58
5722:866,654,81,58,8,17,29,76,302,84
5741:58,564,81,650,76,224,616,542,8,518
5765:866,654,8,76,58,302,29,84,650,17
5766:616,76,866,84,302,17,654,8,29,58
5780:17,58,29,518,224,302,564,81,84,866
5784:866,84,76,302,58,616,29,17,654,8
5788:17,84,76,866,8,302,29,654,58,616
5798:8,84,76,616,654,17,866,58,29,302
5803:226,81,8,542,564,76,138,29,1102,70
5817:58,84,81,8,224,616,518,17,564,650
5822:866,76,616,302,29,58,84,17,654,8
5834:8,302,58,17,616,654,866,29,650,84
5858:8,76,84,654,58,616,17,29,866,302
5863:866,302,84,654,17,76,8,29,58,616
5864:29,17,8,302,650,654,84,81,866,616
5865:8,654,84,616,17,76,29,866,302,58
5866:866,654,616,58,76,302,8,29,17,84
5876:616,84,17,8,654,29,76,58,866,302
5884:8,616,84,17,58,654,76,866,29,302
5890:76,302,866,17,654,58,650,8,84,616
5891:29,616,302,58,8,866,76,84,654,17
5892:8,58,17,29,302,654,76,866,84,616
5894:616,8,654,84,29,866,17,302,76,58
5896:76,866,8,654,17,84,616,58,302,29
5904:866,76,29,84,302,58,17,8,654,616
5905:650,302,17,58,84,76,654,866,29,616
5922:654,58,650,8,866,29,302,76,70,81
5923:866,84,58,616,654,76,650,17,302,29
5943:84,17,654,616,8,302,866,76,58,29
5947:29,76,17,616,866,84,8,302,58,654
5956:8,302,58,29,84,866,650,81,654,76
5964:616,76,866,17,58,8,654,29,84,302
5978:29,8,76,866,58,616,84,302,654,17
5990:302,866,654,616,76,29,8,58,84,17
5994:76,866,17,654,302,8,58,616,29,84
6001:8,17,654,616,84,58,76,866,302,29
6002:76,58,302,654,29,866,17,8,616,84
6013:616,654,84,866,58,302,17,8,29,76
6018:8,654,866,616,17,58,76,29,84,302
6020:76,616,654,17,84,8,29,302,58,866
6027:616,650,58,84,8,654,76,866,302,29
6031:654,17,8,58,616,84,866,76,29,302
6062:654,302,84,866,76,58,616,29,17,8
6067:58,866,29,654,76,302,84,8,616,17
6073:29,650,58,8,76,81,866,84,17,616
6076:654,866,17,29,58,76,84,8,302,650
6078:58,302,17,84,866,29,76,616,654,8
6083:58,866,616,76,29,302,84,8,17,654
6093:81,564,29,76,58,8,70,654,650,616
6109:58,302,866,76,29,654,84,17,8,616
6110:58,76,29,8,654,17,302,84,866,616
6118:654,81,8,76,84,58,616,866,650,29
6128:76,84,81,564,224,542,866,518,650,8
6135:616,76,866,8,58,17,302,29,84,654
6137:564,29,650,76,866,8,81,302,58,70
6139:58,76,650,29,866,302,17,616,8,654
6140:654,8,616,58,29,76,866,302,17,84
6145:866,58,8,302,76,29,17,616,84,654
6146:616,654,76,866,302,8,84,17,58,29
6155:29,302,616,58,84,76,866,8,650,654
6161:866,616,29,76,302,58,84,8,17,654
6162:654,84,650,76,8,302,29,17,616,866
6164:84,29,8,302,654,58,616,17,866,76
6179:654,8,302,76,866,58,616,84,29,17
6186:866,654,17,616,29,8,302,84,76,650
6192:17,76,654,8,58,866,302,29,84,616
6202:866,17,58,616,29,84,654,8,302,650
6205:84,8,654,302,81,58,650,29,616,17
6207:866,76,650,8,654,302,84,616,29,58
6210:650,866,654,58,302,17,29,81,76,70
6219:654,866,29,616,76,302,58,17,84,8
6228:650,29,84,58,76,70,564,866,81,302
6270:58,84,866,654,76,8,17,302,616,29
6271:616,866,650,8,58,76,81,84,654,70
6274:58,76,8,866,29,302,654,616,84,17
6283:29,8,84,81,616,654,58,866,302,76
6290:302,866,58,29,76,8,17,84,654,616
6292:654,8,76,866,84,58,17,616,29,302
6298:17,76,866,8,58,654,302,84,29,616
6301:70,8,866,650,17,81,84,616,564,76
6312:58,302,8,654,616,17,84,866,29,76
6331:8,17,654,866,616,84,76,29,302,58
6336:8,58,866,654,76,302,29,17,616,84
6338:564,8,224,518,58,654,29,302,616,650
6345:76,58,29,302,866,650,654,616,84,8
6351:866,84,8,654,616,17,76,302,29,58
6357:58,650,81,76,616,654,70,564,29,866
6371:654,84,650,8,29,76,866,616,58,17
6391:654,8,866,17,84,616,302,58,29,76
6392:58,866,302,29,70,650,616,654,84,17
6395:76,17,866,654,84,8,616,58,29,302
6404:29,58,616,76,17,654,302,866,84,8
6407:76,29,302,616,8,58,650,866,654,84
6413:616,29,866,76,654,302,58,84,8,17
6420:654,58,866,76,29,302,8,616,84,17
6450:616,564,654,866,650,70,58,76,81,29
6457:76,654,58,616,866,302,17,84,8,29
6469:8,654,29,17,616,84,866,76,302,58
6475:302,8,564,29,81,616,84,650,70,17
6520:616,76,84,17,58,8,654,866,302,29
6536:654,8,84,616,17,76,866,302,29,58
6543:58,17,84,29,76,70,81,616,866,654
6555:654,70,81,224,518,616,354,650,8,58
6565:76,84,17,866,29,302,616,58,654,8
6568:616,58,84,76,8,29,302,866,654,17
6569:654,29,58,8,302,84,76,866,616,17
6587:866,17,58,84,302,8,650,81,29,654
6593:866,616,84,58,76,29,650,17,81,8
6594:654,616,17,76,58,302,8,84,29,866
6597:302,58,8,654,616,29,76,84,866,17
6600:58,29,616,8,17,84,654,76,302,866
6601:616,17,76,84,8,58,866,654,29,302
6602:616,84,17,654,8,302,866,58,29,76
6603:76,866,58,616,654,302,17,84,8,29
6641:76,58,29,17,866,302,616,84,654,8
6642:58,84,29,8,650,81,302,654,616,866
6655:866,302,29,76,17,58,8,616,84,654
6658:866,616,58,8,654,84,17,302,76,29
6671:76,866,302,58,654,29,8,616,84,17
6676:616,302,17,654,76,29,8,866,58,84
6682:8,76,866,81,70,650,58,564,84,616
6694:76,866,29,302,8,17,58,84,616,654
6698:17,76,866,84,302,29,58,654,8,616
6723:58,616,84,8,302,17,650,866,29,654
6724:654,866,76,58,302,84,29,8,17,616
6725:650,866,616,76,58,654,302,84,17,8
6728:654,58,302,29,76,84,616,866,650,8
6735:616,518,70,84,81,8,58,866,17,564
6736:76,654,29,84,866,616,58,650,17,302
6737:76,8,654,866,29,58,84,302,17,616
6749:58,302,654,84,866,8,76,616,17,29
6755:76,866,650,616,302,8,654,58,17,29
6773:508,224,616,518,81,226,301,8,542,564
6792:654,58,17,866,76,302,29,8,650,81
6793:8,654,76,866,81,564,29,58,650,616
6843:616,58,650,29,654,81,8,302,76,84
6851:76,302,650,84,58,616,29,17,654,866
6881:76,84,866,58,17,29,302,654,616,8
6883:17,58,76,8,616,866,654,29,302,84
6886:518,76,226,650,58,8,616,84,564,224
6889:8,76,650,866,58,654,29,302,84,616
6894:17,616,654,84,8,29,302,866,76,58
6895:58,76,866,29,8,302,616,654,84,17
6898:84,8,616,650,654,17,302,866,58,29
6903:84,58,17,654,8,650,302,81,616,29
6932:84,58,302,29,866,76,616,17,654,8
6933:654,866,29,616,76,58,17,84,302,8
6935:8,76,654,616,866,84,29,17,58,302
6939:8,29,654,76,866,84,58,302,616,17
6948:58,84,616,302,76,8,866,29,654,17
6950:616,8,654,29,302,17,84,58,866,76
6958:76,58,84,29,302,8,616,17,654,866
6960:302,616,650,654,8,17,58,84,76,29
6966:616,8,302,84,29,76,17,654,58,866
6977:58,17,76,654,302,84,616,866,29,8
6982:654,76,8,616,29,84,17,58,650,302
6983:654,84,58,302,866,8,76,29,17,616
6984:76,616,58,654,302,29,17,866,8,84
6992:58,76,616,302,654,17,866,29,8,84
7005:84,76,866,616,302,58,29,650,654,8
7019:58,84,29,8,650,76,81,17,302,866
7027:29,58,616,866,84,8,302,17,654,76
7034:84,29,58,866,70,654,81,302,8,17
7035:654,58,84,866,650,76,616,8,29,302
7036:76,654,8,616,84,17,58,29,302,866
7044:58,8,650,84,302,616,654,866,29,76
7053:84,654,8,17,76,616,58,302,866,29
7059:8,17,76,58,654,866,29,302,84,616
7069:76,616,866,8,29,302,654,17,84,58
7077:17,866,58,616,302,8,76,654,29,84
7096:76,84,8,654,17,866,58,302,616,29
7112:17,866,616,84,76,654,8,302,29,58
7116:84,616,58,76,17,866,654,8,302,29
7118:29,58,84,70,616,866,76,81,654,8
7133:650,58,518,564,81,84,8,616,70,866
7137:58,17,302,616,8,76,29,84,654,866
7140:616,76,17,29,866,84,654,58,302,650
7159:654,29,84,76,70,866,81,302,8,650
7173:8,654,29,84,302,616,17,58,76,866
7178:866,302,29,58,616,76,654,84,17,8
7183:650,518,17,70,866,564,81,8,542,616
7184:866,8,76,58,654,29,302,616,84,17
7188:302,616,866,76,84,654,58,29,17,8
7192:76,29,84,616,8,866,564,81,58,70
7196:616,76,8,866,84,302,29,58,17,654
7203:76,84,58,302,17,650,616,654,8,29
7214:58,302,616,76,29,17,654,866,8,84
7224:302,29,8,58,654,84,76,616,17,866
7225:654,76,616,29,84,866,17,8,58,302
7230:616,654,866,8,76,17,58,29,302,84
7232:302,8,654,29,866,58,76,616,84,17
7239:76,8,302,616,866,29,654,58,84,17
7242:76,58,84,8,654,866,302,29,616,17
7254:58,654,76,866,29,302,8,17,84,616
7268:866,81,8,616,650,17,564,70,76,84
7291:8,76,58,302,866,616,17,84,654,29
7294:866,29,58,76,302,654,81,650,17,616
7299:302,76,58,866,29,616,84,8,81,654
7303:58,616,84,654,866,17,8,302,29,76
7326:58,654,650,8,84,616,29,76,302,866
7340:17,8,654,29,616,84,302,76,866,58
7346:302,616,654,866,84,8,58,29,650,17
7348:29,866,58,654,616,8,302,84,76,17
7351:616,17,8,866,84,76,654,29,302,58
7356:8,654,17,616,58,84,866,76,29,302
7366:650,616,70,29,58,76,8,654,866,81
7367:29,302,76,866,654,58,616,17,8,84
7383:58,302,29,17,76,866,654,8,84,616
7397:84,650,76,866,8,302,654,29,17,58
7410:616,84,650,302,29,58,866,17,8,654
7414:8,866,654,76,616,58,84,302,29,17
7419:8,17,84,616,58,866,29,654,76,302
7429:58,8,616,76,302,29,84,866,17,654
7433:76,58,654,8,84,302,616,650,29,866
7444:654,17,76,866,302,8,58,84,29,616
7451:76,8,866,58,654,616,17,29,302,84
7461:616,8,866,58,654,17,29,84,302,650
7466:654,76,58,29,616,8,17,84,866,302
7467:866,76,302,58,29,8,654,650,616,84
7488:866,564,616,650,224,84,58,81,302,518
7489:84,17,616,654,8,302,29,58,76,866
7517:58,302,29,76,866,654,8,17,84,616
7518:654,302,29,81,616,650,76,84,866,58
7519:84,616,58,8,29,650,302,654,76,866
7527:654,76,866,58,8,302,84,29,616,17
7542:29,58,302,654,866,76,616,8,17,84
7555:654,8,29,17,616,84,76,302,866,58
7556:76,866,616,302,29,58,84,17,8,654
7558:616,58,17,302,76,866,29,84,654,8
7563:8,81,650,616,564,84,58,866,70,76
7572:654,76,866,29,8,58,84,302,616,17
7586:17,84,654,58,76,866,616,8,29,302
7590:76,654,81,866,29,84,650,616,302,8
7603:76,654,866,616,58,302,84,650,29,8
7605:29,616,84,654,8,650,866,76,302,58
7607:58,302,29,76,84,866,616,650,8,654
7608:650,58,81,866,302,76,8,616,70,654
7612:8,58,616,654,302,17,76,29,866,84
7617:654,17,29,302,866,58,84,8,76,616
7637:302,616,866,8,654,29,58,650,84,76
7657:302,76,866,58,654,17,29,8,616,84
7661:616,8,866,76,58,654,29,302,84,17
7678:76,866,58,17,654,29,84,8,616,302
7682:866,58,76,654,302,29,8,616,17,84
7692:8,616,866,81,654,29,650,84,302,76
7699:29,76,58,866,654,302,8,84,616,17
7707:70,616,29,81,84,866,76,564,8,650
7708:8,654,17,302,866,76,29,58,84,616
7713:650,564,616,81,8,29,84,58,654,70
7734:866,84,616,76,8,29,17,302,58,654
7741:70,76,518,81,8,302,564,84,866,17
7742:81,84,76,616,8,866,654,650,29,302
7743:58,654,81,29,650,866,302,84,8,17
7751:29,616,654,58,81,76,866,8,84,650
7760:58,866,654,76,8,616,29,84,17,302
7766:616,8,76,654,17,84,58,302,866,29
7787:76,866,616,302,8,654,58,29,17,84
7813:58,76,866,302,29,8,654,84,17,616
7818:8,616,866,654,58,17,84,302,29,650
7823:58,302,8,616,84,29,17,654,866,76
7825:866,84,76,654,29,8,58,17,302,616
7833:84,29,17,616,866,8,654,76,58,302
7841:58,84,866,81,654,29,76,8,302,650
7844:866,76,616,8,84,650,654,58,29,302
7850:58,8,17,616,29,302,654,84,866,76
7863:84,616,76,29,866,302,654,58,17,8
7869:76,654,866,616,8,17,84,58,29,302
7888:564,81,70,866,518,58,17,84,76,654
7889:8,654,616,76,17,866,84,58,29,302
7894:84,616,76,866,302,17,654,8,29,58
7903:616,17,84,8,654,866,76,302,58,29
7915:29,616,564,17,866,58,81,84,542,302
7921:866,654,29,58,8,76,302,616,17,84
7945:616,654,58,76,866,29,302,17,8,84
7946:8,616,58,76,654,84,17,302,866,29
7949:29,58,302,866,654,76,84,8,17,616
7951:29,866,8,616,84,70,76,81,650,58
7958:84,866,17,616,76,58,654,8,29,302
7962:564,226,650,361,29,224,8,81,289,866
7964:58,302,866,76,654,84,29,8,616,17
7967:866,58,84,29,616,76,17,654,8,302
7969:81,302,654,8,76,58,84,616,17,29
7975:866,29,84,76,302,654,8,58,616,650
7976:302,58,84,76,29,616,866,17,654,8
7977:58,866,650,616,76,302,29,8,654,84
7981:654,8,616,76,17,58,866,29,302,84
7990:616,8,29,654,866,84,17,58,76,302
8002:302,616,58,76,29,866,8,17,654,84
8008:616,654,17,8,29,84,866,58,302,76
8009:84,17,58,866,29,654,8,76,650,302
8023:76,58,84,8,302,654,866,29,650,17
8032:76,654,866,58,29,302,8,84,17,616
8036:84,866,76,8,616,654,17,58,302,29
8054:302,654,866,650,8,58,29,616,17,84
8065:866,224,70,58,518,354,650,81,76,542
8068:866,58,76,302,654,29,616,8,84,17
8069:866,654,76,616,650,84,58,302,29,8
8081:29,58,70,616,81,302,8,650,76,84
8090:84,58,564,650,76,70,616,866,81,8
8097:302,8,654,29,616,76,84,866,17,58
8103:616,17,84,866,76,654,8,58,29,302
8104:616,58,17,76,8,654,866,84,29,302
8130:302,866,29,654,17,650,58,76,616,8
8134:866,17,8,616,58,84,654,76,302,29
8137:564,226,224,70,29,138,81,542,58,508
8141:84,8,17,654,616,58,302,29,866,76
8144:29,866,84,654,17,58,616,650,302,8
8150:866,8,29,302,81,518,650,84,70,17
8159:866,654,8,17,84,616,58,302,76,29
8161:8,302,76,654,17,84,866,616,29,58
8163:654,8,17,84,29,616,650,76,58,302
8184:84,76,302,58,29,17,8,866,616,654
8186:866,654,70,650,81,616,564,58,76,29
8200:29,302,866,58,654,76,616,84,8,650
8206:8,58,654,17,84,866,76,29,302,616
8217:84,76,654,866,302,650,17,8,58,29
8224:84,17,76,29,302,650,58,616,654,866
8225:866,616,8,17,654,58,29,302,84,76
8227:17,866,654,76,616,84,8,29,302,58
8229:302,650,866,76,616,84,29,8,58,17
8245:866,616,8,654,84,29,58,76,302,17
8263:17,302,58,654,866,8,84,76,616,29
8264:8,76,654,84,866,29,17,616,302,58
8270:76,866,84,58,17,8,654,302,29,616
8276:84,564,650,58,866,616,8,76,17,81
8285:616,866,302,76,58,29,17,8,654,84
8286:8,84,17,616,58,654,302,866,29,76
8287:76,866,654,302,29,58,8,616,84,17
8290:76,654,616,8,866,17,58,84,302,29
8310:616,76,866,84,654,302,8,17,58,29
8314:866,76,17,654,616,302,29,58,84,8
8325:654,8,616,84,58,17,866,76,29,302
8326:58,84,8,70,76,302,654,29,616,81
8334:616,17,8,84,654,866,76,302,58,29
8336:866,17,616,8,58,654,84,29,76,302
8343:58,650,866,76,8,654,616,84,302,29
8347:29,76,616,866,81,564,8,518,650,70
8352:17,29,866,302,76,58,616,84,8,654
8368:650,654,8,84,866,17,302,616,29,76
8380:654,58,8,650,866,616,29,302,84,17
8396:866,650,8,616,76,70,302,17,58,81
8401:84,650,76,81,616,70,302,58,654,8
8406:866,76,8,29,17,616,81,654,650,58
8411:76,654,650,866,58,616,84,8,302,29
8413:8,866,654,302,616,76,29,58,17,84
8435:58,866,302,76,8,654,29,616,84,17
8449:8,654,76,616,84,17,866,58,29,302
8450:866,654,616,76,84,58,17,8,302,29
8476:76,866,616,58,84,302,29,17,8,654
8477:58,654,616,84,866,17,8,81,29,302
8491:654,8,76,302,58,866,29,616,84,17
8499:8,866,84,654,616,76,17,58,302,29
8500:866,58,76,654,302,8,29,616,17,84
8510:654,302,76,84,866,8,616,17,58,29
8513:654,84,58,302,29,866,8,616,76,17
8517:29,58,302,654,616,17,866,8,76,84
8530:654,866,58,17,650,76,84,302,8,81
8531:650,58,866,8,70,302,564,81,76,29
8534:616,84,17,8,654,76,866,29,58,302
8536:17,8,302,866,76,654,84,616,29,58
8537:58,8,866,76,29,616,84,17,302,654
8552:8,29,58,76,302,84,866,654,17,616
8569:866,302,654,76,8,616,17,58,29,84
8578:58,8,76,866,302,29,84,616,654,17
8581:616,29,58,654,302,76,17,8,84,866
8582:81,354,518,224,542,866,8,226,70,650
8600:654,58,76,866,17,8,616,84,302,29
8603:302,76,654,866,29,58,17,616,84,8
8635:76,866,58,29,302,8,654,616,84,17
8636:58,616,29,866,84,302,650,8,17,654
8637:84,654,616,29,866,76,8,17,58,302
8644:17,84,616,866,76,29,8,302,58,654
8651:76,866,29,654,616,302,84,58,8,650
8660:70,8,866,616,17,76,81,84,58,650
8670:616,76,8,302,17,654,84,29,58,866
8681:8,302,866,81,76,84,650,29,654,70
8692:58,302,866,654,8,616,84,17,29,76
8711:58,654,866,8,616,302,84,17,29,76
8717:84,302,58,29,8,76,654,866,17,616
8718:866,29,8,84,654,58,302,76,616,17
8719:58,542,81,84,564,8,654,29,616,518
8735:8,58,29,76,84,302,654,17,866,616
8736:654,8,616,76,302,866,17,84,29,58
8746:76,616,84,29,58,8,70,302,650,866
8747:866,302,76,58,84,29,616,650,654,8
8755:654,58,8,616,29,17,84,866,302,76
8760:616,84,866,29,654,76,8,58,17,302
8765:616,76,654,17,8,84,58,866,29,302
8768:654,866,76,29,8,58,84,302,17,616
8771:29,76,302,17,866,8,81,654,58,650
8774:654,76,302,58,866,81,17,29,616,650
8782:8,17,58,616,29,302,654,866,84,76
8788:84,866,564,70,650,29,8,76,518,58
8789:302,76,654,616,17,8,866,29,84,58
8790:58,866,76,616,84,8,654,29,17,302
8802:650,70,302,866,616,8,654,564,81,29
8810:866,76,616,8,17,84,654,58,302,29
8812:8,654,76,616,866,84,17,58,302,29
8822:654,8,17,866,76,616,84,302,58,29
8825:616,8,84,650,654,58,29,866,76,302
8844:58,84,17,8,29,76,654,616,302,866
8850:616,866,76,302,84,17,58,8,654,29
8852:58,8,29,84,76,654,302,866,616,17
8862:616,654,84,58,8,866,76,29,302,17
8863:58,866,654,518,81,29,70,8,564,302
8868:76,58,650,616,302,654,866,8,29,17
8870:616,81,70,29,8,17,866,58,564,76
8872:58,17,616,654,84,8,866,302,76,29
8877:654,8,616,17,58,302,866,76,29,84
8889:866,302,654,76,58,616,29,84,17,8
8890:866,84,8,654,616,76,17,29,302,58
8900:616,84,58,866,8,76,29,654,650,302
8906:8,17,654,84,76,58,616,866,302,650
8912:654,866,76,8,58,616,29,302,17,84
8913:58,8,84,302,616,29,654,17,76,866
8915:866,302,650,70,76,29,17,654,81,58
8916:84,76,654,8,29,866,302,17,58,616
8920:84,616,654,17,8,58,29,76,302,866
8924:8,84,616,866,76,17,58,654,302,29
8931:866,616,8,76,58,84,302,650,29,654
8935:76,866,650,29,84,302,58,616,8,654
8936:654,866,17,616,76,84,8,58,29,302
8958:84,650,616,302,654,29,8,58,866,76
8984:616,17,302,76,58,8,866,84,29,654
9000:29,616,17,81,650,8,76,866,70,302
9001:866,17,654,616,8,58,84,302,76,29
9013:76,866,58,302,8,654,29,84,17,616
9024:8,616,84,76,654,866,17,58,29,302
9079:616,84,302,17,654,8,29,58,76,866
9085:58,76,29,17,866,654,650,8,84,616
9096:866,302,29,76,616,58,654,84,17,8
9098:654,17,866,8,616,84,76,58,29,302
9106:8,58,654,650,84,76,866,302,616,29
9111:8,76,84,866,650,654,29,302,58,616
9122:29,84,8,76,650,58,866,17,302,81
9128:866,81,29,8,84,616,564,58,70,654
9135:76,654,616,84,17,866,650,58,81,302
9141:8,654,58,616,17,84,866,302,76,29
9152:302,76,654,866,29,58,8,650,84,616
9155:650,654,866,302,8,84,29,76,17,58
9157:17,866,302,76,29,616,58,84,8,654
9158:84,17,654,616,866,8,76,58,302,29
9159:58,17,76,302,8,654,616,29,84,866
9160:58,654,8,17,616,84,866,76,29,302
9161:8,76,17,58,654,866,616,29,84,302
9171:58,81,8,84,654,564,616,518,70,29
9173:616,76,866,8,58,84,29,654,650,302
9200:8,17,654,866,76,302,84,616,29,58
9224:58,866,654,302,616,76,29,8,84,17
9225:654,58,84,302,866,17,29,616,8,76
9233:654,616,302,17,8,866,84,76,58,29
9236:58,76,866,302,8,29,84,17,654,616
9237:70,866,84,29,542,76,224,8,518,81
9238:650,654,84,58,866,616,302,8,29,76
9245:616,84,8,654,17,58,866,302,29,76
9249:58,616,17,866,654,76,84,8,29,302
9256:654,29,76,81,866,58,302,8,70,616
9276:302,654,84,616,76,17,866,8,29,58
9288:866,84,302,8,76,58,616,650,654,29
9290:616,654,58,84,8,17,866,302,29,76
9291:76,84,302,616,650,654,29,8,58,866
9310:654,866,8,616,17,58,84,29,76,302
9312:76,302,8,29,84,616,866,650,654,58
9313:76,302,17,58,8,29,866,84,654,616
9331:8,654,76,29,866,17,302,58,84,616
9333:302,58,654,76,84,616,866,17,29,8
9350:866,654,58,17,29,650,616,8,302,84
9357:866,76,58,616,29,84,302,654,8,17
9359:84,58,866,29,616,302,8,654,70,81
9364:866,616,58,84,17,29,302,76,8,654
9368:616,29,84,8,866,654,302,17,58,76
9369:17,76,866,29,302,58,84,8,616,654
9371:302,616,76,866,29,58,654,81,564,650
9381:58,302,616,8,84,866,29,654,17,76
9389:8,58,654,29,616,17,84,302,76,866
9394:650,8,866,76,58,29,84,81,654,616
9400:29,58,866,81,76,17,70,8,302,84
9402:866,8,58,76,654,302,29,616,17,84
9420:866,58,29,76,302,8,616,654,84,650
9431:17,84,616,58,866,654,76,302,29,8
9432:650,8,58,302,866,654,76,616,29,17
9433:58,302,866,8,654,29,616,84,17,76
9437:8,866,616,17,29,654,76,58,84,302
9442:866,8,616,654,58,84,17,76,29,302
9443:654,81,866,84,8,58,29,76,650,302
9451:29,616,8,84,81,650,302,58,76,866
9473:866,76,616,17,29,58,654,84,302,8
9474:58,654,84,8,29,616,17,76,302,866
9486:866,8,654,616,84,58,76,302,29,17
9487:866,58,84,76,17,302,29,8,616,654
9489:76,616,654,650,8,866,84,29,58,17
9494:616,866,654,17,84,76,302,58,29,8
9498:76,866,58,8,84,616,302,29,654,17
9499:76,866,616,17,58,84,302,8,654,29
9500:654,8,17,84,616,76,866,29,302,58
9507:866,58,654,616,302,17,29,84,8,76
9514:866,58,616,76,654,8,84,29,17,302
9525:654,866,8,84,58,29,76,302,17,616
9528:616,17,58,8,654,29,84,866,302,76
9531:17,76,8,866,29,58,616,302,654,84
9535:616,58,76,8,84,17,654,866,29,302
9538:650,866,58,84,654,81,8,17,29,302
9541:29,302,866,76,58,654,8,84,616,17
9553:654,8,866,58,76,302,84,29,616,17
9568:302,84,76,29,8,866,58,654,17,616
9570:58,302,616,8,866,29,76,654,17,84
9571:17,76,654,866,58,8,84,302,29,616
9573:654,84,8,616,17,76,302,866,29,58
9576:17,654,29,866,84,76,58,8,616,302
9580:866,654,29,84,616,302,76,17,650,58
9590:866,29,17,58,650,81,70,518,302,224
9593:302,58,8,29,866,616,654,76,650,84
9606:8,654,866,616,76,84,17,58,302,29
9612:302,81,29,616,58,8,650,76,866,70
9613:8,58,84,302,76,616,866,29,654,17
9614:17,76,654,58,866,29,8,302,84,616
9630:616,8,29,76,866,58,302,84,17,654
9665:8,84,866,70,29,17,58,650,518,81
9666:866,616,76,17,84,8,654,29,302,58
9668:8,58,29,616,654,84,76,17,866,302
9680:616,58,654,84,866,8,17,650,302,29
9685:616,8,866,17,84,76,58,29,654,302
9693:8,58,654,616,866,84,17,302,76,29
9694:616,866,58,8,76,654,29,302,84,17
9696:76,8,616,84,302,29,58,866,654,17
9711:58,654,17,8,616,84,76,866,29,302
9722:866,58,616,302,76,29,17,84,8,654
9727:76,17,654,8,29,84,616,866,58,302
9742:29,302,866,76,58,654,8,616,84,17
9745:866,224,81,654,564,84,518,58,70,17
9752:17,866,84,76,654,302,58,29,8,616
9753:29,58,654,302,8,76,84,866,616,17
9755:8,616,650,654,84,58,866,17,29,76
9757:8,302,58,616,76,654,17,84,866,29
9786:58,29,84,616,76,302,8,650,81,654
9808:302,8,58,76,866,84,29,654,616,17
9810:616,76,866,8,654,302,29,58,84,17
9812:29,58,76,8,81,866,302,650,616,84
9813:58,76,29,302,866,8,654,616,17,84
9818:616,302,58,76,8,866,29,17,654,84
9820:58,616,8,654,76,84,17,866,302,29
9824:84,8,866,58,654,616,17,76,29,302
9827:654,8,84,58,17,616,76,866,302,29
9831:8,29,17,84,58,654,76,616,302,866
9834:58,302,17,654,29,616,866,76,8,84
9837:616,29,81,654,866,8,76,17,650,84
9839:302,866,58,8,654,616,29,84,76,17
9840:8,654,616,84,17,76,58,866,29,302
9864:866,76,8,84,58,17,616,29,650,654
9879:58,654,302,8,76,866,29,84,17,616
9890:29,17,866,81,650,58,302,8,84,654
9891:564,58,866,81,76,70,654,616,29,8
9892:654,866,8,58,17,76,84,302,616,29
9896:654,76,8,58,29,17,866,302,84,616
9899:8,84,616,29,650,654,58,302,866,76
9900:866,84,8,29,654,616,302,81,650,17
9911:866,302,654,8,17,29,76,616,84,58
9926:654,81,302,866,29,58,650,8,84,76
9927:226,508,518,736,224,138,6,564,650,1102
9929:58,866,29,302,654,84,76,8,616,81
9944:302,29,58,8,866,17,84,76,654,616
9945:8,17,76,84,302,866,29,58,616,654
9946:84,58,8,616,654,866,17,29,302,76
9961:8,76,654,84,17,616,866,58,302,29
9984:17,302,58,29,616,654,76,84,866,8
10030:8,29,76,302,650,866,84,81,654,616
10040:76,866,58,616,29,654,84,17,302,8
10050:866,76,302,29,616,58,84,8,654,17
10051:302,76,58,8,866,29,654,84,616,17
10073:58,654,302,84,8,29,76,866,616,17
10078:58,76,302,29,866,8,616,17,84,654
10082:866,616,76,58,302,29,8,654,84,650
10084:76,8,866,302,84,29,616,654,58,17
10086:84,29,76,866,17,8,616,654,302,58
10088:8,84,654,17,616,58,866,76,302,29
10090:76,866,616,58,302,17,29,84,8,654
10110:29,302,866,84,616,8,654,650,58,76
10111:58,76,8,654,616,302,84,29,17,866
10115:76,58,29,866,616,84,302,17,654,8
10117:654,8,616,84,17,29,58,866,76,302
10130:17,58,8,866,76,302,29,616,654,84
10132:654,29,616,8,76,58,17,866,302,84
10133:866,76,302,654,8,17,58,29,616,84
10136:58,654,866,29,17,616,84,8,302,650
10140:866,58,84,17,76,302,29,616,8,654
10148:84,76,866,58,654,8,302,17,29,616
10155:76,302,866,17,58,29,654,8,616,84
10156:8,654,76,58,866,302,29,84,616,17
10194:8,866,76,650,654,302,29,616,81,58
10196:650,84,8,302,866,616,81,76,58,29
10200:866,58,302,29,616,84,76,17,8,654
10210:302,29,866,76,58,8,84,616,17,654
10233:866,58,17,302,29,616,76,84,8,654
10235:76,58,616,8,29,654,17,84,866,302
10236:8,654,84,17,302,58,29,866,76,616
10237:616,866,17,29,654,8,76,650,302,58
10249:8,17,616,58,29,866,76,654,84,302
10254:8,866,58,654,76,29,302,616,84,17
10267:518,81,29,8,76,650,564,866,616,224
10275:8,616,58,29,654,302,866,84,76,17
10276:650,70,58,84,654,29,616,866,302,81
10279:17,8,654,84,866,29,616,302,58,76
10302:70,58,8,650,81,76,84,866,564,616
10303:654,29,8,17,84,616,76,866,58,302
10304:17,29,8,84,654,616,58,302,76,866
10306:81,616,29,84,866,17,8,650,654,70
10313:8,76,84,29,58,866,17,302,654,616
10317:84,616,650,8,654,58,76,866,302,29
10335:8,654,76,84,58,302,17,866,29,616
10339:81,616,29,58,70,564,650,654,76,518
10342:616,866,654,17,302,650,29,76,8,84
10346:76,58,8,84,29,866,302,17,616,654
10359:58,8,302,76,84,650,654,81,616,866
10364:302,866,58,84,8,29,654,616,17,76
10366:866,650,29,81,76,58,84,564,654,70
10371:302,866,76,58,616,8,17,654,84,29
10377:8,58,654,866,84,76,29,616,17,302
10378:616,654,76,84,17,8,58,29,302,866
10387:616,866,58,8,29,76,654,17,302,84
10388:654,29,8,302,84,58,616,866,76,17
10392:8,654,616,84,76,17,866,302,29,58
10408:76,58,29,654,17,302,866,616,84,8
10420:302,76,84,58,8,866,650,29,654,17
10427:29,76,866,302,58,8,654,616,17,84
10439:29,76,564,866,84,81,650,70,518,8
10445:616,58,650,84,654,29,17,866,76,302
10454:58,866,302,76,616,17,84,8,654,29
10471:58,650,76,866,302,616,17,654,29,8
10478:8,866,616,17,302,84,81,76,650,58
10479:58,654,76,866,29,302,616,84,17,8
10480:302,58,654,84,8,76,650,866,17,29
10488:84,302,616,8,650,76,654,866,58,29
10502:654,866,8,58,84,302,616,76,17,29
10513:866,84,76,58,29,616,17,302,654,8
10523:302,58,17,866,76,84,29,616,654,8
10543:616,76,866,58,29,302,17,84,654,8
10554:654,29,616,17,8,302,866,84,76,58
10563:616,81,29,84,866,650,302,8,654,58
10564:616,654,866,84,29,8,58,81,650,302
10570:866,29,84,58,616,650,81,76,8,17
10573:58,654,29,302,8,616,76,84,866,17
10580:654,302,58,29,866,76,8,616,17,84
10636:866,81,616,84,76,8,302,29,650,654
10655:76,616,17,866,58,302,8,29,654,84
10691:654,8,616,17,58,76,84,866,302,29
10693:8,81,17,654,76,866,29,302,650,84
10698:866,8,17,302,84,654,76,650,58,29
10707:616,17,8,76,58,302,84,866,29,654
10710:76,564,650,518,8,58,70,542,81,616
10726:616,76,17,654,58,866,8,84,29,302
10747:17,58,616,8,84,654,866,76,29,302
10758:84,76,302,654,58,29,8,866,616,17
10770:8,654,76,84,29,616,17,58,866,302
10779:76,866,654,302,58,8,84,29,17,616
10794:302,8,58,616,76,866,84,654,17,29
10801:8,29,616,654,17,302,58,866,76,84
10807:616,58,84,654,302,29,17,866,76,8
10820:76,616,866,654,8,17,58,302,29,84
10842:8,616,58,654,84,866,302,29,17,76
10843:84,302,654,866,58,17,8,616,29,76
10844:76,654,302,616,8,58,17,866,29,84
10845:8,17,302,76,654,29,84,58,866,616
10854:76,866,8,58,654,302,84,17,29,616
10858:58,654,302,29,8,616,84,17,76,866
10871:302,8,616,654,17,84,866,29,58,76
10892:616,866,76,302,58,8,654,17,29,84
10905:654,616,8,866,76,302,17,84,58,29
10908:302,76,866,654,616,17,29,84,650,58
10913:58,654,29,866,8,302,616,76,17,84
10920:866,302,76,616,58,29,84,8,650,654
10955:76,8,616,84,302,17,654,866,29,58
10956:616,84,29,866,58,81,76,302,654,650
10968:8,76,654,616,84,866,58,17,29,302
10991:302,76,8,616,29,866,58,654,17,84
10999:84,654,616,70,76,866,29,58,17,81
11000:76,58,654,29,866,616,8,302,84,17
11022:866,76,29,650,84,8,302,616,58,654
11034:76,654,84,29,58,81,17,8,70,866
11037:866,58,8,17,654,76,302,84,29,616
11047:84,8,654,29,17,616,866,302,58,76
11055:8,58,84,616,76,17,29,654,866,302
11099:58,8,654,302,616,84,29,76,17,866
11105:654,616,8,650,76,866,70,81,29,302
11110:302,84,8,76,654,866,29,17,58,616
11118:866,58,654,76,29,302,84,17,8,616
11132:58,8,654,17,302,84,29,866,616,76
11134:76,866,29,58,17,84,302,8,616,654
11135:17,654,76,8,302,84,616,29,58,866
11149:650,302,616,8,866,70,76,654,81,58
11150:654,8,76,29,58,866,302,616,17,84
11193:58,76,866,17,84,302,29,8,654,616
11211:84,302,29,654,17,8,616,58,866,76
11222:76,654,866,58,29,8,302,84,616,17
11228:616,76,654,58,84,866,302,29,8,17
11240:84,866,17,76,654,29,616,8,58,302
11259:654,8,302,17,84,616,866,76,29,58
11264:58,29,17,866,616,76,654,84,650,8
11273:76,70,58,616,866,81,650,84,564,29
11278:654,8,29,302,616,58,84,17,76,866
11279:616,654,29,84,17,76,8,58,866,302
11280:8,654,76,616,866,302,17,29,58,84
11287:81,650,654,616,8,58,302,29,76,866
11332:866,76,58,84,8,302,29,17,616,654
11360:866,29,76,302,616,58,8,17,84,654
11363:84,8,29,616,17,302,866,654,58,76
11378:29,616,76,302,654,84,866,58,17,8
11388:866,76,17,8,58,84,654,29,302,616
11394:76,654,302,58,8,616,84,17,866,29
11404:616,866,8,84,76,17,654,302,58,29
11414:8,76,302,616,866,654,17,58,29,84
11418:654,616,29,84,8,866,17,76,302,58
11419:58,302,84,616,650,866,8,654,29,76
11426:84,17,76,616,8,58,29,654,866,302
11427:76,866,616,58,84,17,29,302,8,654
11428:17,302,654,8,866,84,616,76,58,29
11431:76,654,866,616,58,8,29,17,302,84
11437:302,76,654,8,616,17,84,29,58,866
11439:302,866,17,76,84,616,654,8,29,58
11444:616,84,650,866,654,29,8,76,58,17
11458:76,17,866,84,58,616,29,8,302,654
11462:302,654,8,29,17,58,76,866,616,84
11463:354,29,224,58,508,542,866,81,226,76
11484:84,866,616,654,58,8,17,302,29,76
11507:654,866,650,29,8,302,58,84,17,616
11510:58,654,76,84,29,650,17,616,81,866
11511:866,76,58,8,84,654,616,17,302,29
11525:654,8,17,84,616,866,76,650,302,58
11529:866,58,616,654,76,29,302,8,17,84
11535:866,58,84,8,76,29,616,650,302,654
11537:866,58,8,29,76,302,654,616,17,84
11538:76,866,81,17,8,650,84,29,616,58
11540:17,76,616,866,29,84,302,654,58,8
11552:58,8,654,84,616,302,650,29,866,76
11554:17,616,866,302,58,29,76,8,84,654
11558:76,866,8,17,29,84,58,302,616,654
11569:81,8,866,518,29,616,76,224,564,650
11584:29,76,8,17,650,84,654,866,302,81
11586:866,76,58,8,616,654,17,29,302,84
11603:616,84,654,8,17,58,866,76,29,302
11606:81,29,564,518,84,866,654,70,650,58
11614:616,58,17,84,302,29,8,654,76,866
11616:866,616,76,29,8,17,654,84,58,302
11651:654,302,616,76,866,29,58,8,17,84
11657:58,616,654,8,17,84,302,76,29,866
11660:17,84,866,58,650,70,76,616,81,8
11670:29,58,76,84,8,654,17,616,302,866
11676:84,8,866,29,654,76,17,58,302,616
11685:616,84,76,866,8,302,17,654,29,58
11699:616,866,654,17,84,76,8,302,58,29
11700:76,866,58,654,302,81,616,29,84,8
11716:616,8,76,84,650,654,302,29,58,866
11719:76,654,8,616,866,58,302,29,84,17
11723:29,616,17,84,76,58,8,654,302,866
11738:58,302,650,654,866,8,76,17,29,616
11749:17,58,84,616,76,654,866,302,29,8
11775:654,17,8,866,616,84,76,58,29,302
11781:84,616,8,29,81,58,17,70,654,866
11788:866,76,58,616,84,29,654,302,17,8
11795:616,8,84,654,17,866,76,302,29,58
11799:58,654,17,302,29,8,76,616,84,866
11818:8,17,76,866,84,616,302,654,58,29
11825:616,76,84,17,654,8,58,866,302,29
11835:76,29,8,84,866,81,17,58,650,616
11836:654,58,616,29,302,866,76,84,8,17
11838:866,84,616,76,302,29,17,58,654,8
11839:866,616,76,29,58,302,84,17,8,654
11843:8,654,302,616,58,76,29,866,84,17
11844:616,76,84,58,29,302,17,8,866,654
11847:8,866,17,302,654,76,616,58,84,29
11851:616,654,866,8,76,58,302,29,84,17
11856:654,58,8,84,17,616,866,29,302,76
11863:29,58,302,866,76,84,8,17,654,616
11864:866,302,8,616,654,84,76,17,29,58
11865:58,616,8,29,302,84,70,17,650,866
11883:654,29,84,302,17,8,58,616,866,76
11884:866,76,58,654,8,302,616,29,17,84
11885:616,866,84,29,302,17,58,654,8,76
11892:654,58,29,866,8,302,616,76,17,84
11893:8,866,654,84,616,17,29,58,76,302
11896:29,58,81,302,616,8,650,17,84,654
11910:650,58,8,84,616,654,76,866,302,29
11913:76,302,84,654,8,17,616,58,866,29
11922:866,76,8,84,650,302,654,29,616,17
11928:76,302,866,654,616,8,58,29,84,17
11929:81,654,866,29,84,518,564,650,224,8
11939:29,866,17,76,84,58,616,302,8,654
11956:70,8,654,616,650,29,76,866,81,84
11962:58,76,17,654,866,616,302,29,8,84
11968:29,654,866,76,616,8,58,302,17,84
11972:616,302,29,58,866,84,76,654,8,17
11979:866,29,76,302,58,616,8,654,17,84
11983:866,8,84,650,616,654,81,76,17,58
11988:29,76,8,866,302,58,81,84,616,654
11990:616,302,29,58,76,866,8,654,84,17
11996:58,866,8,29,302,616,17,76,654,84
11999:616,84,17,58,29,76,8,654,302,866
12008:302,84,76,866,29,58,17,616,654,8
12010:616,84,8,29,866,76,17,302,58,654
12011:17,58,76,302,866,29,616,8,654,84
12027:616,654,84,866,17,650,29,302,58,8
12028:70,84,866,650,81,654,564,518,76,8
12037:866,654,8,616,76,29,84,17,81,302
12047:29,302,616,866,84,8,58,654,76,17
12050:76,518,81,650,616,17,654,70,564,866
12067:866,616,76,8,654,17,302,84,58,29
12084:866,8,29,650,81,84,76,70,17,654
12094:654,302,76,866,58,616,17,29,8,84
12130:76,84,29,616,654,8,17,866,58,302
12170:58,29,17,84,616,654,866,8,302,650
12199:8,866,654,84,17,616,76,58,302,29
12211:29,17,866,58,302,76,8,654,616,84
12213:616,866,58,84,76,654,17,8,29,302
12232:866,650,302,76,29,84,654,8,81,17
12234:8,302,866,76,29,58,84,654,616,17
12235:58,8,17,29,616,866,76,84,302,650
12237:17,58,616,76,29,302,84,866,8,654
12239:8,866,58,29,76,302,654,84,616,17
12263:654,8,616,17,84,76,58,866,302,29
12268:76,654,866,84,8,29,58,302,616,17
12271:76,84,58,29,616,302,654,866,8,17
12272:8,302,58,654,866,616,76,29,84,17
12296:654,29,866,58,17,302,76,84,8,616
12310:650,58,302,76,654,8,29,616,866,17
12327:650,8,302,616,84,866,58,654,17,29
12328:17,76,616,84,302,654,58,866,8,29
12356:302,84,29,616,8,17,654,58,76,866
12360:8,616,866,84,76,81,654,58,302,650
12364:29,302,58,8,866,84,654,81,650,76
12373:8,302,654,76,866,616,84,58,29,17
12375:76,866,58,654,302,84,29,8,17,616
12376:76,17,302,616,866,84,29,654,58,8
12379:616,84,866,58,17,76,8,654,29,302
12406:29,76,302,654,58,866,8,84,616,17
12416:29,302,866,650,616,84,58,654,81,76
12428:616,302,29,17,84,58,654,8,866,76
12433:654,8,17,616,866,84,76,302,58,29
12443:58,8,654,866,616,76,29,302,84,17
12453:76,29,866,58,8,650,616,302,654,81
12464:58,302,84,866,616,17,8,76,654,29
12467:654,29,8,58,616,866,76,84,302,17
12474:29,654,8,616,84,17,302,866,58,76
12480:616,58,302,654,76,866,29,8,17,84
12496:76,654,8,29,84,866,302,58,17,616
12498:654,8,17,866,84,302,616,76,29,58
12505:76,866,616,8,302,29,654,17,84,58
12512:58,866,81,84,616,654,8,70,650,76
12531:616,84,8,866,58,302,29,17,654,76
12532:17,302,866,76,29,616,58,84,8,654
12533:81,866,564,29,616,8,650,76,58,70
12534:58,76,616,8,29,84,866,302,17,654
12536:866,29,58,17,616,302,81,650,84,76
12540:654,866,58,650,84,616,8,17,29,76
12541:654,8,616,84,17,76,866,58,302,29
12544:17,302,76,58,866,616,654,29,650,84
12549:76,29,654,8,84,616,17,650,58,302
12552:654,8,58,84,866,29,616,76,17,302
12555:654,29,866,84,302,17,8,616,76,58
12556:8,654,616,17,29,302,76,866,58,650
12559:654,616,302,76,84,8,650,29,866,58
12562:29,8,654,616,84,17,302,58,76,866
12564:866,58,76,564,70,84,518,8,616,81
12568:866,654,58,616,29,8,76,302,84,17
12573:616,58,8,17,302,29,654,84,866,76
12587:84,866,616,76,58,29,302,8,654,650
12595:8,654,17,58,616,76,302,84,29,866
12601:302,8,58,76,29,866,654,616,17,84
12604:76,650,29,518,866,81,302,84,564,70
12616:84,866,616,17,76,29,302,58,8,654
12622:8,302,29,84,76,650,866,616,654,17
12628:58,866,76,84,29,8,302,654,616,17
12630:866,76,58,84,616,302,17,29,8,654
12642:650,866,81,654,616,17,70,8,76,29
12660:616,302,29,84,654,8,866,17,58,76
12662:302,616,29,866,58,17,76,654,8,84
12663:8,302,29,58,654,76,616,84,866,17
12669:866,58,616,8,654,76,84,29,302,17
12676:302,76,29,866,616,17,58,8,654,84
12700:654,84,302,8,17,616,866,76,29,58
12701:17,616,76,29,58,866,84,654,302,650
12723:866,654,84,616,29,76,17,302,58,8
12725:616,58,76,84,654,17,8,866,29,302
12739:654,29,76,302,616,8,866,17,58,84
12753:866,654,29,17,58,616,650,84,8,302
12754:866,616,76,58,29,17,654,302,84,8
12761:866,58,84,302,654,616,76,29,17,8
12766:8,654,84,17,76,616,302,29,866,58
12767:84,8,616,654,17,29,866,58,76,302
12773:654,616,866,8,76,84,17,29,302,58
12779:616,17,84,654,58,8,302,29,866,76
12780:58,84,29,866,302,76,654,616,8,17
12794:616,866,84,17,654,76,58,302,8,29
12795:84,650,58,866,17,654,8,29,616,76
12796:866,58,8,76,17,84,654,616,29,302
12799:866,616,76,8,58,84,29,302,17,654
12804:8,616,302,29,84,866,654,76,58,17
12807:29,17,76,654,84,302,58,616,866,8
12811:84,650,81,17,616,58,76,8,654,302
12836:17,8,76,654,616,84,866,58,302,29
12841:302,17,84,616,76,866,29,8,654,58
12852:29,302,58,8,76,654,866,17,84,616
12860:866,70,564,654,76,616,29,58,650,81
12885:654,29,58,302,616,84,70,650,8,866
12892:58,84,76,866,616,29,8,81,302,654
12898:654,58,29,302,84,616,17,8,866,76
12902:84,76,866,8,302,58,29,17,654,616
12912:76,81,17,866,70,564,84,354,650,224
12918:84,76,8,866,650,29,17,616,302,81
12928:29,58,654,84,76,866,302,650,616,17
12931:616,654,17,29,650,866,302,8,76,84
12934:29,17,84,616,866,76,8,654,302,58
12939:8,58,76,866,302,29,654,616,84,17
12956:616,76,84,17,866,29,654,8,302,58
12967:76,29,17,866,84,58,8,302,616,654
12970:29,17,654,302,616,76,84,8,866,58
12985:29,8,58,76,84,17,302,866,616,654
12986:29,84,17,866,616,8,650,58,302,654
12991:84,866,76,654,29,302,58,8,616,17
12998:76,58,616,654,8,866,84,29,302,17
13004:302,616,17,76,58,29,866,84,654,8
13019:84,8,58,654,17,76,866,616,302,29
13024:58,29,17,616,76,866,302,8,84,654
13025:302,654,8,76,866,58,29,616,84,17
13039:84,76,17,58,8,29,616,866,654,302
13040:8,17,58,76,654,616,866,29,84,302
13050:76,58,84,616,866,17,654,29,8,302
13060:8,616,17,302,654,866,84,58,29,76
13062:8,58,654,302,616,29,17,76,866,84
13071:76,866,302,58,29,84,616,8,654,650
13080:616,654,76,866,8,84,17,29,302,58
13081:76,226,84,81,654,70,650,8,866,354
13087:17,8,866,654,76,58,302,616,29,84
13092:8,76,29,866,302,58,84,81,616,650
13094:76,654,302,616,84,866,17,8,58,29
13106:866,76,58,302,29,8,17,84,616,654
13109:866,654,29,17,76,8,84,616,302,58
13110:58,8,84,76,17,29,866,302,616,654
13116:866,8,654,616,58,84,17,29,302,76
13152:650,866,81,8,84,616,17,654,58,76
13153:17,866,29,654,302,76,8,616,84,58
13177:616,866,654,8,84,76,29,302,17,58
13179:29,17,8,616,302,650,84,866,58,654
13192:84,866,8,17,58,76,654,29,302,616
13195:654,8,76,84,58,17,616,29,866,302
13226:616,29,654,8,17,76,84,58,866,302
13233:29,866,84,58,654,302,616,8,17,76
13259:8,654,29,616,84,17,866,76,58,302
13264:58,616,866,654,650,8,302,84,29,76
13269:8,58,866,76,616,302,29,654,17,84
13280:866,302,76,654,29,58,616,8,17,84
13285:84,654,8,17,616,302,58,866,76,29
13289:76,866,302,616,17,8,58,29,654,84
13295:76,29,650,866,654,302,81,8,84,70
13296:84,866,8,654,29,17,76,616,58,302
13307:654,58,29,866,17,8,616,76,302,84
13312:650,58,84,564,616,76,866,654,8,81
13319:616,654,76,17,84,8,302,29,866,58
13325:76,58,616,84,17,29,654,8,866,302
13335:76,58,29,17,654,84,81,302,866,8
13339:29,866,302,58,76,8,654,84,17,616
13353:866,8,76,58,17,302,29,84,616,654
13367:58,302,29,8,76,866,616,654,84,17
13375:84,58,302,654,29,616,76,17,8,866
13377:302,866,29,616,84,654,8,76,17,58
13380:616,17,29,84,8,654,302,76,58,866
13387:58,84,76,866,616,29,302,17,8,654
13392:8,76,866,654,29,17,84,616,58,302
13414:84,654,616,8,650,76,29,302,866,58
13425:866,76,58,616,84,29,8,302,17,654
13432:8,654,866,84,616,58,17,76,302,29
13434:29,58,302,81,866,76,8,84,654,616
13435:84,76,866,616,58,8,17,654,29,302
13436:8,654,17,616,84,76,866,58,302,29
13444:866,654,76,17,8,84,58,616,29,302
13445:84,17,866,8,650,58,654,81,302,29
13447:76,58,866,302,29,654,8,84,17,616
13459:17,29,654,8,58,84,866,302,616,76
13464:654,616,8,84,17,866,58,302,76,29
13466:866,616,8,654,84,17,29,302,58,76
13467:8,302,616,84,866,29,76,17,58,654
13469:650,58,76,616,81,866,8,70,654,84
13470:58,654,29,8,84,866,302,616,76,17
13504:616,866,84,302,8,70,81,76,58,29
13506:866,616,58,654,650,76,17,302,8,84
13511:58,29,76,302,84,866,616,8,650,654
13525:866,616,654,84,76,302,8,29,17,58
13526:654,58,8,616,76,84,302,17,866,29
13530:654,8,84,17,616,58,866,76,302,29
13533:29,76,84,17,616,654,8,650,866,302
13534:616,654,8,84,17,76,302,866,29,58
13535:616,58,302,654,84,29,76,17,866,8
13564:8,866,616,84,302,58,17,654,29,76
13568:17,654,866,76,84,8,58,616,302,29
13584:29,654,8,616,84,866,302,17,76,58
13590:84,58,76,17,29,866,302,8,616,654
13596:654,84,616,76,58,866,302,17,29,8
13602:8,866,654,650,17,29,58,302,76,84
13607:654,616,866,76,17,8,84,58,29,302
13613:76,654,866,616,84,17,8,650,29,302
13618:616,866,76,302,8,58,29,17,84,654
13632:58,866,29,76,17,302,84,616,654,8
13633:8,76,866,302,616,654,29,84,17,58
13634:302,29,616,8,650,58,81,76,84,654
13643:302,58,17,866,76,84,616,29,8,654
13657:8,616,29,654,17,866,58,84,302,76
13665:76,302,8,866,58,29,84,654,17,616
13666:29,8,17,616,866,302,84,58,650,654
13696:654,616,866,8,76,29,84,58,302,17
13700:650,29,302,8,76,58,616,866,654,81
13701:8,58,29,302,866,616,76,17,84,654
13710:76,866,58,8,654,29,302,17,616,84
13723:84,17,8,616,58,654,302,29,76,866
13752:76,58,866,302,84,29,616,17,654,8
13758:84,76,616,29,654,17,650,58,866,8
13761:84,866,76,616,8,29,302,58,654,17
13770:866,76,616,58,654,84,17,29,8,302
13781:616,84,58,17,654,302,29,866,76,8
13782:302,58,8,866,76,84,29,654,616,17
13784:84,58,616,302,29,76,866,8,654,17
13806:58,81,70,76,616,302,650,654,29,564
13812:58,29,866,76,17,8,84,650,654,302
13813:76,866,58,29,302,650,8,654,616,84
13831:8,654,58,76,29,866,17,302,84,616
13835:866,616,17,8,654,58,76,84,302,29
13841:17,302,8,654,29,81,84,866,58,616
13871:654,29,58,302,76,866,17,8,616,84
13874:76,17,866,302,616,29,58,654,8,84
13876:29,17,616,302,58,84,76,866,8,654
13883:8,650,81,58,616,84,302,76,866,29
13884:58,866,84,8,616,81,17,29,654,70
13892:616,58,29,866,17,84,76,302,654,8
13893:29,58,76,84,866,616,17,302,654,8
13900:29,650,654,616,58,81,8,302,866,76
13912:616,58,654,76,29,8,17,866,84,302
13918:616,17,58,84,8,654,866,29,302,76
13924:58,616,84,76,8,866,302,29,654,650
13953:58,616,302,76,8,650,654,17,29,84
13956:29,302,76,84,58,654,616,866,8,17
13961:29,302,8,17,76,58,654,866,84,616
13964:58,84,76,654,29,650,8,17,302,616
13995:616,17,8,84,654,866,302,58,76,29
14003:76,866,29,17,616,84,654,302,8,58
14014:76,866,8,616,84,17,654,302,58,29
14015:866,76,17,29,302,8,58,616,654,84
14024:76,866,302,84,17,29,58,616,8,654
14034:866,58,302,76,654,29,616,17,8,84
14040:8,58,76,654,302,84,616,17,866,29
14056:8,654,616,302,84,17,29,866,76,58
14057:8,866,654,616,302,58,76,17,29,84
14058:29,58,616,17,84,8,866,76,302,650
14065:58,654,8,84,616,29,17,76,866,302
14068:302,29,58,8,76,654,866,84,17,616
14069:866,70,654,84,81,564,8,650,76,616
14084:654,616,76,8,866,29,17,84,302,58
14087:302,76,84,17,616,866,29,8,654,58
14088:17,76,866,58,302,29,84,654,616,8
14095:17,616,76,654,866,58,84,8,29,302
14112:84,29,58,866,302,81,8,76,650,17
14120:84,17,616,654,866,76,8,58,302,29
14128:302,58,654,76,616,17,866,8,29,84
14139:8,654,866,17,302,58,76,650,84,29
14142:654,58,616,76,84,8,29,866,302,17
14147:616,17,654,8,302,84,29,76,58,866
14148:76,866,616,17,29,302,58,84,8,654
14151:302,17,616,84,29,58,8,654,76,866
14176:866,58,650,17,76,29,8,654,616,84
14210:650,76,17,84,58,616,8,866,302,81
14211:866,76,58,302,8,29,84,17,616,654
14219:866,616,17,58,76,29,302,654,8,84
14247:518,654,8,76,650,866,81,616,564,302
14293:564,616,84,29,654,81,70,866,8,650
14299:866,29,58,84,8,76,302,654,17,616
14314:29,76,866,302,84,650,58,616,654,81
14321:866,654,76,29,84,17,8,616,58,302
14330:8,84,17,76,616,866,302,654,58,29
14336:17,58,84,616,654,650,866,302,8,29
14347:76,866,29,58,302,616,8,654,84,17
14371:76,8,866,654,616,84,302,58,17,29
14386:29,866,76,58,654,302,17,84,616,8
14397:8,650,616,76,866,654,58,84,302,17
14407:58,8,29,76,654,17,866,616,302,84
14422:302,616,29,84,58,76,866,654,8,17
14436:654,76,8,84,58,29,866,17,616,302
14445:76,654,84,58,17,866,29,302,8,616
14446:58,616,654,76,29,302,866,8,17,84
14455:654,866,8,58,616,302,84,29,17,76
14470:616,650,564,81,654,17,866,58,76,29
14473:76,84,616,650,8,654,29,17,58,302
14508:866,76,29,17,616,302,84,654,8,58
14509:8,302,650,84,58,616,866,654,81,29
14517:29,58,17,84,302,616,654,866,8,76
14522:616,84,8,58,654,76,866,17,302,29
14524:866,654,8,302,76,58,29,17,84,616
14536:84,17,654,76,616,29,302,866,58,8
14554:654,17,616,84,866,302,76,8,58,29
14568:58,76,29,8,654,302,866,616,84,17
14576:616,17,76,8,302,29,84,654,866,58
14582:81,29,70,8,302,650,84,866,76,564
14590:76,84,29,654,616,8,17,302,58,866
14591:654,76,302,8,616,84,29,866,58,17
14601:58,866,8,17,76,29,302,654,616,84
14613:29,58,650,17,84,8,70,654,81,866
14615:866,654,76,8,29,58,616,84,302,17
14619:866,8,29,58,654,17,616,84,302,76
14629:58,654,8,616,84,76,302,17,866,29
14639:8,84,76,866,29,654,302,58,17,616
14640:17,302,616,8,84,654,866,76,58,29
14652:302,616,58,84,650,654,8,29,81,866
14676:84,866,58,616,76,8,29,654,81,650
14681:84,58,866,29,17,76,302,8,616,654
14695:58,17,654,8,84,616,29,302,866,76
14697:17,302,76,866,654,84,58,29,8,616
14701:58,17,84,8,302,29,866,76,616,650
14712:866,76,8,58,616,84,654,29,17,302
14717:76,866,58,29,302,616,654,8,84,17
14719:616,58,302,29,70,8,84,650,81,866
14721:84,76,29,654,302,58,866,8,616,17
14737:654,29,58,8,302,84,17,866,76,616
14752:84,76,17,866,58,654,302,616,8,29
14755:17,29,84,650,866,58,76,616,302,8
14759:29,866,58,8,76,81,654,650,84,616
14764:76,616,58,17,84,654,8,29,302,866
14767:866,84,17,616,76,58,8,302,29,654
14771:8,17,654,616,302,866,29,84,58,76
14776:76,17,84,616,866,654,58,8,302,29
14784:616,302,76,17,29,8,654,84,58,866
14788:76,650,81,84,866,70,29,17,564,302
14791:17,76,58,84,29,8,654,866,616,302
14793:866,654,29,8,302,76,84,58,616,17
14794:616,8,302,866,84,654,650,76,58,29
14822:29,616,76,58,866,302,84,17,8,654
14824:76,654,616,84,302,866,8,17,58,29
14862:17,654,84,58,29,616,302,76,866,8
14863:616,84,866,76,8,650,654,29,302,58
14864:616,17,58,84,302,29,654,8,76,866
14865:866,84,302,76,58,8,650,29,616,654
14874:650,302,29,76,866,17,8,84,616,58
14879:654,29,302,8,76,58,866,17,84,616
14881:58,17,616,302,84,8,654,29,866,76
14883:76,8,81,650,58,29,866,70,616,564
14906:616,866,654,8,58,76,302,29,17,84
14923:58,302,17,76,29,866,616,8,84,654
14924:76,58,866,84,8,654,29,616,17,302
14933:76,866,616,654,29,58,17,8,84,302
14934:84,616,17,76,8,866,654,29,58,302
14960:84,76,866,17,616,58,654,8,302,29
14964:84,616,8,866,564,81,76,70,650,58
14967:616,29,866,8,302,654,650,17,84,58
14982:654,866,8,84,17,616,76,58,29,302
14992:302,866,29,58,8,84,654,76,17,616
15002:302,76,29,58,866,84,616,8,17,654
15024:58,654,616,8,866,76,84,29,17,302
15025:76,8,654,17,866,29,84,616,58,302
15027:76,8,654,616,17,84,866,58,29,302
15043:866,616,654,76,58,84,302,29,8,17
15044:8,58,654,17,866,302,29,76,84,616
15051:8,654,616,84,29,76,866,58,17,302
15066:8,654,58,302,76,616,17,866,29,84
15068:76,616,654,866,8,29,84,17,58,302
15073:654,17,616,84,8,29,866,76,58,302
15076:866,76,58,29,302,654,8,84,17,616
15079:84,302,866,8,17,76,29,58,616,654
15101:866,616,76,654,58,29,302,84,17,8
15104:654,866,302,84,76,17,29,8,616,58
15106:866,58,17,76,654,8,84,616,29,302
15113:654,616,8,76,866,84,58,17,302,29
15130:84,302,17,654,58,8,76,866,29,616
15131:866,17,58,8,29,302,616,76,654,84
15135:58,866,650,654,29,302,17,616,76,84
15166:616,8,654,17,58,84,76,866,29,302
15176:616,84,17,76,302,866,29,654,58,8
15177:650,29,616,302,81,8,84,58,654,70
15178:302,84,866,8,76,58,29,654,650,616
15187:866,58,76,302,29,616,8,654,17,84
15189:84,58,616,29,76,302,17,654,866,8
15201:8,866,58,302,654,29,616,76,17,84
15207:17,302,58,654,866,84,8,76,29,616
15211:654,58,8,84,17,866,302,616,76,29
15214:58,616,654,76,302,29,84,866,8,17
15216:8,302,866,58,616,29,76,654,17,84
15221:616,58,302,8,84,654,17,76,866,29
15224:8,866,654,58,84,17,29,302,76,616
15253:654,17,866,84,616,302,29,76,58,8
15278:302,654,8,84,17,76,866,616,29,58
15280:84,650,17,29,58,616,302,8,654,866
15288:8,84,866,616,76,650,29,654,302,58
15289:8,76,302,616,654,84,866,17,58,29
15297:616,76,866,654,302,17,58,29,84,8
15302:654,8,84,616,17,76,302,29,866,58
15303:17,616,29,84,76,8,58,302,866,654
15306:866,76,17,29,8,616,84,654,302,58
15308:8,76,654,616,84,17,29,302,58,866
15313:8,58,654,29,17,302,616,866,76,84
15333:58,654,29,866,17,8,76,84,650,302
15340:616,17,58,81,76,866,650,70,84,8
15352:8,650,654,76,616,84,17,29,866,58
15357:17,654,8,84,616,58,76,29,866,302
15366:866,8,17,70,564,84,518,616,81,76
15375:616,17,654,302,866,84,8,76,58,29
15378:650,58,302,29,76,616,8,84,17,654
15380:616,17,8,58,84,654,76,866,29,302
15385:76,650,866,70,58,84,8,81,616,654
15388:616,654,8,84,58,17,866,76,29,302
15394:17,29,654,76,58,8,302,866,84,616
15404:866,8,616,76,654,84,17,58,29,302
15420:866,654,58,17,29,616,302,8,650,84
15421:616,302,58,8,654,866,29,76,17,84
15433:29,76,866,84,616,654,302,17,8,58
15434:84,58,616,8,654,302,650,17,29,866
15441:654,8,866,84,58,302,616,76,17,29
15442:58,17,616,76,8,302,866,29,654,84
15448:866,17,8,616,58,654,302,29,84,76
15451:29,84,58,302,866,616,654,76,8,17
15466:866,17,302,654,29,76,58,8,616,84
15469:76,866,58,29,8,17,302,654,616,84
15470:76,866,302,84,654,29,58,17,8,616
15476:866,76,654,8,84,616,17,302,58,29
15477:58,866,302,29,76,17,654,616,84,8
15490:76,58,616,654,8,17,866,84,302,29
15495:76,616,654,8,84,17,866,58,302,29
15496:29,8,76,866,302,58,616,654,84,17
15503:866,58,29,76,302,654,8,616,17,84
15524:8,650,302,616,654,58,76,84,17,29
15525:81,29,84,76,70,518,650,224,8,564
15534:76,654,17,866,84,8,302,616,58,29
15541:76,84,616,866,58,29,17,302,654,8
15551:654,616,650,70,76,866,58,29,81,302
15567:8,650,302,616,84,17,76,29,58,866
15587:866,8,76,302,29,58,616,654,17,84
15591:29,76,616,58,17,84,866,302,654,8
15599:616,17,8,302,866,58,84,76,29,654
15600:866,84,17,616,654,302,8,58,76,29
15601:81,58,302,616,650,29,17,866,654,76
15604:84,654,76,81,866,58,8,29,302,650
15608:616,84,8,58,76,302,17,654,866,29
15609:302,84,866,8,650,76,29,654,58,17
15621:76,17,58,654,8,84,616,29,302,866
15625:76,866,58,654,616,8,302,29,84,17
15631:654,29,302,76,866,58,8,17,616,84
15640:654,76,866,58,302,84,17,8,29,616
15648:8,654,84,76,17,29,58,866,616,302
15654:58,866,616,29,76,302,17,84,8,654
15666:654,616,8,29,17,58,84,866,76,302
15671:29,616,58,654,84,17,8,302,76,866
15690:58,8,654,17,616,84,76,866,302,29
15715:76,866,29,8,616,302,17,654,84,58
15724:866,84,76,8,616,17,58,29,302,654
15725:8,58,29,302,654,17,84,616,76,866
15737:866,302,76,58,29,654,616,8,17,84
15752:866,76,29,58,650,616,8,302,654,81
15760:17,76,654,84,866,616,58,8,29,302
15773:302,76,8,654,17,58,84,866,29,616
15774:17,866,654,76,8,616,58,302,84,29
15782:616,58,17,76,866,654,29,8,302,84
15794:58,29,302,616,76,8,84,866,654,17
15809:654,58,302,76,866,84,29,17,8,616
15835:58,866,76,29,84,616,302,654,8,17
15857:8,616,76,84,866,302,58,29,17,654
15858:866,654,8,302,76,17,84,29,58,616
15860:76,616,866,8,84,58,17,302,29,654
15866:654,866,76,58,302,84,17,29,8,616
15882:8,654,616,84,76,302,29,17,866,58
15889:866,29,654,76,616,58,302,8,17,84
15890:84,76,866,58,650,302,17,616,8,654
15908:17,76,866,654,29,8,84,616,58,302
15914:58,8,654,29,17,76,616,84,302,866
15917:8,17,654,76,866,84,616,58,302,29
15918:302,76,654,8,866,616,58,29,84,17
15935:302,76,84,29,58,866,654,17,8,616
15940:17,616,84,866,76,302,8,58,654,29
15950:616,76,17,866,29,302,58,84,654,8
15963:302,84,616,8,866,650,654,29,58,17
15977:302,76,654,8,616,866,29,58,17,84
15988:58,302,654,29,866,76,8,616,84,17
15999:302,84,616,17,8,654,29,58,76,866
16008:866,76,58,302,8,616,29,654,84,17
16017:58,302,29,616,866,17,654,8,84,76
16020:866,76,84,58,17,616,8,654,302,29
16021:29,8,616,302,866,654,17,84,76,58
16043:302,616,8,17,866,84,76,654,29,58
16062:17,29,616,58,76,866,302,84,654,8
16065:58,866,84,29,81,650,8,616,654,76
16074:866,76,302,29,58,84,8,616,654,17
16088:654,866,58,29,8,616,302,76,84,17
16093:17,84,616,866,58,654,8,76,29,302
16097:8,866,76,17,84,616,654,58,302,29
16099:654,866,76,58,29,616,8,84,302,17
16112:17,8,29,650,76,654,84,81,866,58
16113:616,17,29,302,84,76,650,8,654,866
16122:616,58,650,84,29,302,866,654,76,8
16132:616,650,58,8,866,302,84,654,29,17
16137:8,654,29,17,84,76,616,302,866,58
16141:76,866,302,29,58,616,654,84,8,650
16151:302,650,58,76,70,84,29,866,17,81
16167:302,76,58,616,29,17,866,84,8,654
16169:58,616,8,866,76,302,654,84,29,17
16185:654,8,616,866,58,76,302,29,17,84
16186:654,866,58,302,29,616,8,17,76,84
16187:302,76,616,17,866,654,29,58,8,84
16192:302,29,616,58,8,76,84,654,17,866
16217:8,58,302,616,29,866,654,76,17,84
16231:654,302,866,616,17,58,76,29,84,8
16233:616,84,17,76,8,29,302,866,58,654
16234:58,76,654,8,616,29,866,17,84,302
16235:616,8,17,58,76,84,654,302,29,866
16238:654,58,29,616,302,866,76,8,17,84
16256:58,84,76,302,616,866,8,17,29,654
16269:302,616,8,84,76,58,17,654,29,866
16277:17,650,866,76,654,8,616,84,29,302
16287:302,8,866,616,17,654,84,58,29,76
16292:8,17,76,866,654,302,616,84,29,58
16297:616,58,654,29,17,302,866,76,84,8
16301:58,654,302,866,8,616,84,17,29,76
16302:616,58,76,866,84,29,302,8,17,654
16305:302,81,616,76,17,58,654,84,866,8
16309:76,58,8,84,866,302,29,518,17,650
16329:866,8,84,654,17,29,616,76,302,58
16330:302,84,17,76,29,654,70,866,8,81
16335:76,81,654,8,29,84,650,17,302,866
16337:616,302,8,29,76,654,58,84,866,17
16338:654,58,302,866,8,616,29,76,84,17
16352:302,616,84,17,8,58,654,76,29,866
16380:29,58,76,866,302,654,8,84,616,17
16388:866,76,8,616,654,58,17,29,302,84
16411:654,84,8,616,58,17,866,302,29,76
16422:29,866,302,84,58,17,76,8,654,616
16447:616,29,58,650,76,84,81,654,8,302
16449:8,84,76,866,58,17,302,29,654,616
16465:654,58,302,76,29,866,84,8,616,17
16467:8,866,76,58,29,654,302,616,17,84
16474:17,866,76,58,650,616,29,84,8,302
16493:84,616,29,302,8,17,866,654,58,76
16495:76,866,58,8,654,302,616,17,29,84
16515:17,76,8,84,58,654,616,302,29,866
16522:616,29,76,84,654,17,58,8,302,650
16524:654,866,8,616,17,84,76,302,58,29
16525:302,654,8,616,84,17,76,866,58,29
16530:616,58,29,84,654,76,8,866,302,17
16531:84,76,8,654,17,866,616,29,58,302
16532:654,58,8,84,616,302,17,866,29,76
16552:866,29,302,76,654,8,616,17,58,84
16553:616,866,76,654,58,29,8,302,17,84
16554:8,654,84,616,866,17,29,76,58,302
16558:8,76,866,58,654,84,29,616,302,17
16568:17,654,866,616,84,8,76,58,29,302
16628:76,654,866,8,616,84,58,17,302,29
16639:866,616,8,76,58,29,302,17,84,654
16640:650,58,8,29,302,76,866,81,654,84
16641:76,8,29,866,650,302,654,58,17,616
16642:654,302,616,8,29,17,58,84,866,76
16643:654,17,616,866,8,84,76,302,58,29
16666:866,84,76,29,654,17,8,302,58,616
16667:58,654,302,76,866,29,616,8,17,84
16674:866,654,29,76,84,616,58,17,302,81
16679:654,58,866,8,76,84,29,302,17,616
16710:76,654,616,8,84,866,29,17,302,58
16714:17,616,650,29,866,58,654,84,302,8
16775:8,654,866,58,76,29,302,17,84,616
16776:76,29,616,58,866,302,8,84,654,650
16796:8,654,84,29,302,616,76,58,866,17
16799:8,29,302,58,866,654,17,84,76,616
16812:58,76,84,8,866,29,302,17,654,616
16815:302,866,616,17,76,29,8,654,84,58
16833:17,84,616,866,302,29,654,76,8,58
16838:84,17,616,76,8,866,654,58,302,29
16839:58,866,76,29,81,650,8,17,616,84
16858:76,302,866,29,616,654,58,84,8,17
16859:654,8,616,17,84,866,76,29,58,302
16860:58,8,17,29,84,302,616,654,76,866
16878:58,654,76,29,8,81,866,84,650,302
16887:84,8,29,866,654,58,650,616,76,302
16890:8,866,17,84,76,58,302,654,616,29
16891:76,616,58,17,8,84,866,654,302,29
16896:58,302,866,8,29,76,654,84,616,17
16898:616,17,58,8,76,654,29,866,84,302
16918:866,76,84,29,17,302,58,616,8,654
16926:58,650,616,866,84,17,8,654,302,76
16929:654,29,302,8,616,17,866,84,58,76
16945:29,616,76,17,654,58,8,302,866,84
16954:302,29,76,84,564,654,70,81,866,650
16961:58,866,8,616,302,654,84,76,29,17
16972:58,866,302,8,654,29,76,616,17,84
16980:58,866,8,654,76,17,616,29,84,302
16983:76,654,84,8,17,81,650,29,302,866
16993:8,654,616,84,17,29,302,866,76,58
17006:29,8,302,616,654,650,17,84,76,866
17007:616,650,8,29,654,58,81,866,70,76
17008:616,84,302,29,76,866,58,17,654,8
17020:654,76,866,58,29,8,302,616,84,17
17034:29,654,76,866,58,302,84,17,616,8
17053:654,866,17,616,8,76,84,58,302,29
17056:650,29,866,58,654,81,84,76,17,8
17074:654,866,302,8,58,616,17,76,29,84
17079:84,654,58,616,17,8,76,29,866,302
17097:302,654,84,8,29,58,76,866,616,17
17099:29,866,84,654,8,302,650,58,81,17
17115:866,76,8,616,29,84,654,58,302,17
17116:616,76,866,84,17,8,58,654,29,302
17117:17,8,866,616,76,84,654,58,29,302
17118:76,866,616,84,58,29,302,654,8,17
17147:17,302,654,8,616,84,866,29,76,58
17154:58,84,654,616,302,17,8,76,866,29
17158:84,58,76,17,8,302,616,866,654,29
17159:76,616,866,58,302,29,84,17,654,8
17164:866,616,654,84,76,302,17,8,29,58
17165:654,8,76,84,866,29,58,302,616,17
17178:84,58,17,616,8,76,866,302,654,29
17191:654,8,616,17,58,84,866,76,29,302
17193:17,866,84,302,616,29,8,654,58,76
17195:84,76,29,866,302,8,654,17,58,616
17208:76,866,58,616,8,84,17,654,29,302
17241:616,29,58,76,866,302,84,8,654,17
17243:58,76,654,616,302,84,8,17,29,866
17251:654,84,8,616,76,17,866,29,302,58
17254:8,866,654,58,76,29,616,302,17,84
17266:84,616,8,302,650,866,76,58,17,29
17267:76,616,654,58,17,8,302,866,29,84
17272:8,866,650,84,654,302,70,81,616,29
17278:84,58,17,616,76,302,654,8,866,29
17279:29,654,58,616,302,17,8,84,76,866
17285:302,76,866,58,29,616,84,8,17,654
17297:76,866,302,616,84,58,29,17,8,654
17328:84,616,302,17,8,654,29,866,650,58
17358:616,58,76,8,84,302,866,29,654,650
17363:58,76,29,866,302,8,84,654,17,616
17378:58,29,654,616,8,84,17,866,302,76
17412:654,84,76,866,58,616,8,17,302,29
17415:866,76,616,84,8,58,654,302,17,29
17418:654,8,84,616,866,76,17,58,29,302
17426:866,58,616,654,17,84,8,76,302,29
17440:29,616,84,76,866,58,654,17,8,302
17448:8,866,654,76,58,29,616,302,17,84
17461:8,58,654,29,866,17,302,84,76,616
17473:866,76,29,654,84,58,302,8,616,17
17474:302,616,17,8,29,84,866,654,76,58
17475:8,29,84,616,650,302,76,81,866,70
17477:81,8,616,302,29,654,84,17,650,58
17484:616,302,866,29,76,654,58,84,8,17
17492:8,76,654,866,616,84,81,58,70,650
17498:616,654,17,76,29,302,866,58,8,84
17499:58,302,616,654,8,29,866,76,17,84
17513:654,616,866,84,58,29,302,8,17,650
17522:866,17,76,58,29,654,302,84,8,616
17528:29,58,616,17,302,654,8,866,84,76
17530:76,866,58,29,302,616,84,17,8,654
17547:76,866,58,654,8,84,17,302,616,29
17549:58,8,654,76,616,29,866,302,17,84
17551:616,58,17,76,84,866,302,29,8,654
17556:76,866,654,58,302,29,616,17,8,84
17562:58,302,29,76,8,866,616,654,17,84
17576:76,84,654,29,866,58,302,8,616,17
17579:866,8,17,76,29,84,302,58,616,654
17591:302,29,58,76,17,866,84,616,8,654
17592:58,29,616,8,302,76,866,654,17,84
17606:76,58,17,654,84,650,29,866,8,302
17620:29,58,866,76,654,302,17,8,616,84
17624:29,84,76,616,650,654,866,302,58,81
17625:58,29,866,654,8,302,76,84,17,616
17626:654,8,58,302,29,866,76,17,616,84
17642:616,654,866,29,8,58,84,76,17,302
17653:866,8,17,654,58,76,84,616,302,29
17671:29,302,8,654,76,58,17,616,866,84
17688:84,76,29,866,654,81,616,650,58,302
17689:866,650,616,76,654,70,29,58,81,302
17695:616,84,8,654,650,58,29,866,302,76
17716:58,866,616,8,654,17,29,76,302,84
17731:654,58,8,616,17,302,84,29,866,76
17749:58,654,81,29,8,76,616,650,302,84
17753:76,650,866,616,58,29,17,84,654,8
17779:58,84,654,616,8,866,650,29,76,302
17792:302,654,8,29,58,866,76,616,17,84
17798:29,76,58,302,616,8,654,866,17,84
17810:616,866,76,29,8,654,58,302,17,84
17812:654,8,866,76,58,616,302,650,84,29
17813:866,76,302,8,29,654,616,58,17,84
17831:866,616,17,76,302,654,84,8,29,58
17844:654,866,76,17,29,8,616,58,84,302
17863:8,616,17,84,866,58,29,654,76,302
17867:58,616,29,654,8,302,84,17,866,76
17869:616,866,84,8,654,76,58,17,302,29
17890:8,58,302,654,17,29,76,616,84,866
17897:650,81,8,29,84,616,76,70,866,58
17905:58,84,654,29,616,17,76,866,8,302
17919:76,866,29,8,84,17,302,654,616,58
17921:84,866,76,654,8,17,58,616,302,29
17922:29,302,616,866,654,17,8,84,58,76
17925:76,29,866,58,84,8,302,17,616,654
17926:866,8,654,616,76,58,302,17,84,29
17936:8,866,17,76,616,654,58,84,29,302
17937:302,29,866,58,616,654,76,8,17,84
17972:76,866,8,654,58,17,84,616,29,302
17974:302,654,8,84,58,17,616,29,76,866
17993:58,616,84,866,654,76,17,29,8,302
18005:616,654,8,17,58,84,29,76,866,302
18030:302,650,616,866,8,58,76,654,17,29
18039:650,84,616,8,302,58,654,29,17,866
18042:17,84,866,616,654,8,76,58,302,29
18046:58,8,654,302,866,76,84,29,17,616
18068:866,58,8,17,654,84,76,302,616,29
18070:29,58,8,654,17,616,84,302,866,76
18089:8,58,29,302,654,17,866,76,84,616
18090:302,616,84,58,654,29,8,866,17,76
18101:8,58,29,84,302,866,17,654,616,76
18123:17,58,84,654,866,8,616,76,302,29
18127:58,616,866,76,8,302,654,17,84,29
18133:8,58,302,654,29,866,84,76,17,616
18146:8,654,616,17,84,866,76,58,29,302
18147:302,8,58,866,29,616,84,76,650,654
18163:84,866,8,17,29,302,58,76,616,654
18165:654,8,866,76,58,302,29,84,616,17
18166:76,654,8,616,29,17,84,58,866,302
18182:58,76,29,866,302,8,654,650,616,84
18186:8,654,76,302,564,70,650,29,58,81
18187:616,8,84,654,17,58,302,29,76,866
18195:17,58,29,8,76,654,84,616,302,866
18200:8,302,654,616,76,84,17,29,58,866
18204:76,58,654,302,84,8,616,29,17,866
18208:866,616,29,8,302,58,17,76,84,654
18209:302,58,8,654,616,76,17,29,84,866
18211:866,650,302,29,58,8,81,654,616,76
18212:8,302,866,616,654,84,17,29,58,76
18261:866,17,8,76,654,29,84,58,302,616
18272:302,8,654,29,616,84,866,58,17,76
18273:8,302,29,58,866,76,17,84,654,616
18284:84,8,17,29,302,650,654,76,616,866
18306:866,76,302,17,58,29,616,84,8,650
18311:616,76,866,302,58,29,84,654,8,17
18316:58,29,84,8,76,866,302,654,616,17
18322:58,302,654,17,8,84,29,76,616,866
18334:17,84,654,616,8,866,76,29,302,58
18337:81,866,654,8,17,650,29,84,616,302
18360:654,866,8,17,58,302,76,84,616,29
18365:58,8,76,302,654,17,29,866,84,616
18384:58,84,76,866,17,654,8,29,650,302
18392:17,84,76,302,8,650,29,58,866,654
18394:58,866,29,17,616,84,76,654,302,8
18404:58,866,17,654,302,29,76,616,84,8
18405:866,58,654,8,29,302,616,84,76,17
18411:654,76,616,58,866,8,84,302,29,17
18416:8,616,76,29,84,654,866,302,58,17
18417:81,650,302,654,76,8,84,70,58,866
18433:654,17,76,866,8,58,29,302,84,616
18491:8,654,76,866,302,616,84,17,58,29
18496:29,84,302,17,76,616,866,58,8,654
18505:302,616,8,76,58,29,866,654,17,84
18510:76,58,84,616,17,8,866,654,302,29
18525:654,8,866,76,302,17,29,84,616,58
18545:8,654,17,84,76,866,616,58,29,302
18561:58,654,616,8,302,17,84,866,29,76
18571:76,866,29,17,654,58,8,650,616,84
18616:654,302,866,84,29,76,616,58,8,650
18639:76,866,84,58,302,29,654,17,616,8
18648:8,654,84,616,17,58,866,76,29,302
18657:866,616,17,58,76,84,29,654,302,8
18663:8,302,29,58,616,76,866,17,654,84
18666:866,616,58,654,8,302,84,17,650,29
18686:866,84,58,616,650,302,654,8,29,17
18690:58,29,654,17,866,76,616,84,302,8
18697:654,8,17,616,84,866,29,58,76,302
18698:654,76,616,8,84,17,866,29,302,58
18707:29,76,8,84,866,302,654,616,58,17
18709:866,76,58,616,84,8,17,302,654,29
18711:17,616,29,84,866,8,76,654,58,302
18712:84,17,58,29,866,8,616,76,654,302
18713:654,866,8,76,58,84,616,29,17,302
18766:58,616,866,650,29,84,654,76,81,8
18810:84,70,650,302,8,29,866,17,81,76
18815:29,866,302,17,616,84,8,654,76,58
18823:8,76,866,654,58,84,616,17,302,29
18827:84,866,616,17,76,654,8,58,302,29
18836:616,84,76,58,302,17,8,866,29,654
18845:8,58,866,29,616,17,76,302,654,84
18852:17,8,616,76,654,58,866,84,29,302
18885:654,58,8,302,616,29,76,17,84,866
18887:616,29,654,58,84,302,866,76,17,8
18901:58,29,650,84,616,866,81,654,76,8
18944:8,84,616,654,76,29,58,17,866,302
18965:58,302,17,616,84,654,8,866,29,76
18999:654,8,58,84,866,17,302,616,76,29
19001:616,866,650,654,302,76,29,58,8,84
19006:866,654,58,616,29,8,84,302,17,76
19010:58,81,8,654,866,84,76,17,616,650
19019:866,76,29,654,616,58,302,17,8,84
19022:58,302,8,654,29,84,616,17,76,866
19025:8,866,654,616,17,58,302,76,84,29
19030:29,616,302,58,84,17,866,76,8,654
19032:866,650,84,654,58,29,616,302,8,17
19043:58,302,654,616,17,8,29,84,76,866
19046:29,17,76,866,616,8,84,58,654,302
19048:29,302,654,17,58,8,866,76,84,616
19049:58,302,29,616,654,84,866,17,76,8
19050:58,76,654,8,84,17,302,616,29,866
19051:8,650,76,616,84,654,866,17,58,29
19062:84,76,654,8,17,58,616,866,29,302
19065:29,616,866,76,58,654,8,302,17,84
19069:17,654,8,76,616,866,84,58,29,302
19070:866,654,8,616,17,58,76,84,302,29
19094:654,616,8,76,58,29,302,17,84,866
19095:302,866,29,58,84,76,616,654,8,17
19096:616,76,84,866,8,58,654,17,302,29
19097:76,866,29,302,8,58,17,654,84,616
19102:8,81,866,76,84,29,58,564,654,70
19129:17,8,866,654,84,616,302,76,29,58
19130:866,654,29,302,58,76,8,84,17,616
19144:616,58,17,84,866,654,76,29,302,8
19148:8,84,58,29,76,17,654,616,302,866
19156:616,17,58,8,84,866,302,654,29,76
19163:84,17,29,866,616,654,302,76,58,8
19165:654,866,58,76,29,616,302,17,8,84
19174:29,17,8,302,654,58,866,84,76,616
19176:616,17,654,84,866,76,8,29,302,58
19178:58,29,654,8,17,84,302,76,866,616
19184:76,866,17,8,302,58,654,84,29,616
19185:58,616,866,29,84,302,76,654,17,8
19198:866,29,654,302,76,616,58,17,84,8
19199:8,84,17,866,654,58,616,302,76,29
19240:17,84,302,866,76,8,58,29,654,616
19241:84,616,654,58,76,866,650,302,8,29
19243:866,8,58,17,616,76,29,84,654,302
19244:58,76,866,616,654,29,302,8,17,84
19246:650,8,616,84,654,58,76,302,29,866
19259:302,29,654,76,8,866,58,616,17,84
19262:866,84,8,76,654,58,29,302,17,616
19265:302,58,616,84,29,17,8,654,76,866
19276:76,654,8,616,17,84,58,29,866,302
19277:17,84,58,866,76,302,654,29,616,8
19304:302,17,8,84,616,29,654,58,866,76
19307:302,8,29,616,17,84,654,866,58,76
19308:29,650,616,84,58,70,654,81,8,302
19309:654,76,29,58,302,8,84,866,17,616
19320:302,8,654,866,616,84,58,76,29,17
19328:84,58,29,866,302,76,616,8,654,17
19343:76,29,58,866,302,84,616,8,654,17
19354:302,58,866,84,17,8,654,616,76,29
19355:302,654,17,84,616,58,29,8,76,866
19356:866,29,654,17,76,302,84,616,58,8
19357:866,17,76,58,29,302,616,84,654,8
19400:58,81,29,866,84,654,76,302,8,650
19405:616,866,76,58,29,654,302,8,17,84
19410:58,616,654,76,84,17,8,866,29,302
19422:866,654,58,8,29,650,302,17,84,616
19433:76,29,302,84,58,866,616,17,654,8
19434:8,29,76,654,84,616,17,302,866,58
19443:76,58,866,616,302,29,654,17,84,8
19444:654,84,8,58,17,29,616,76,302,866
19446:654,616,8,58,76,866,29,302,17,84
19447:17,84,616,8,76,654,29,866,302,58
19448:616,84,654,17,58,8,76,302,866,29
19452:650,8,654,616,76,58,84,866,17,302
19462:8,302,29,654,58,17,76,616,866,84
19463:866,8,17,58,302,29,76,616,654,84
19467:29,76,654,58,84,302,616,866,8,650
19468:29,70,518,616,8,58,81,654,564,84
19475:616,84,17,302,8,654,29,58,76,866
19476:302,17,8,866,654,84,616,76,29,58
19482:17,58,616,84,866,654,8,302,29,76
19498:866,302,76,8,29,84,58,17,616,654
19503:58,654,76,302,866,84,17,616,29,8
19517:616,58,302,650,29,654,866,8,76,84
19528:8,58,616,17,29,866,302,76,84,654
19541:76,616,866,58,654,29,302,84,17,8
19544:17,29,654,616,76,866,302,84,8,58
19549:8,654,84,616,17,866,58,29,302,76
19554:58,302,650,17,29,76,866,70,654,81
19582:76,58,8,302,29,654,866,616,17,84
19583:8,58,616,84,302,654,17,29,76,866
19626:650,8,616,58,84,76,866,654,29,302
19646:866,29,302,84,76,616,17,58,8,654
19680:302,866,76,8,58,29,84,17,654,616
19682:616,654,29,84,58,17,76,866,302,8
19692:616,76,654,29,84,302,58,866,17,8
19705:58,8,29,302,17,866,616,76,84,654
19707:76,654,58,302,84,616,29,8,17,866
19757:84,866,616,17,8,76,654,29,58,302
19759:616,84,58,866,8,29,76,654,17,302
19763:29,58,654,616,8,17,84,866,76,302
19764:866,58,76,17,29,616,302,84,8,650
19768:616,84,8,17,654,58,29,302,866,76
19774:866,76,302,29,17,654,616,84,58,8
19781:654,8,84,616,58,17,866,302,76,29
19788:616,866,58,654,76,84,17,302,29,8
19814:84,616,654,302,58,17,29,8,76,866
19832:302,8,17,58,654,616,866,84,76,29
19847:84,76,8,302,17,616,650,29,58,866
19852:616,8,302,58,29,866,654,17,84,76
19881:76,616,8,866,654,302,17,58,29,84
19882:616,654,8,29,650,84,58,76,302,866
19887:58,84,29,302,76,654,8,866,17,616
19893:58,29,616,302,866,8,76,654,84,17
19950:866,84,616,654,76,17,58,8,302,29
19965:302,616,84,29,76,654,58,17,866,8
19983:29,654,616,866,8,76,58,17,84,302
19985:81,29,17,76,866,8,302,616,84,58
19996:8,302,58,76,84,866,29,616,650,654
20059:76,302,866,29,58,616,654,84,8,17
20067:8,58,29,616,302,76,654,84,17,866
20073:17,58,8,29,302,76,84,654,866,616
20074:616,84,29,8,58,654,76,17,866,302
20075:29,76,302,654,866,58,8,616,17,84
20094:58,29,302,17,84,76,866,616,8,654
20095:84,17,616,76,58,302,650,29,654,866
20115:29,8,654,76,17,866,616,302,84,58
20116:76,302,866,17,8,58,29,654,84,616
20120:866,58,76,29,17,302,616,84,8,654
20125:866,29,84,654,17,616,8,76,302,58
20160:302,654,84,616,17,76,8,29,58,866
20161:302,58,654,616,17,29,84,866,650,8
20166:616,58,866,17,302,84,8,654,29,76
20183:58,866,616,302,76,29,654,17,8,84
20206:866,58,654,8,76,29,302,616,17,84
20208:76,8,866,58,29,84,654,302,17,616
20220:58,81,29,616,84,654,866,76,8,650
20233:76,29,58,616,302,866,8,654,84,17
20234:616,58,17,650,70,76,8,866,81,29
20257:29,76,58,8,302,616,866,17,84,654
20268:84,29,302,654,616,58,17,8,76,866
20294:616,76,58,866,29,302,84,17,8,654
20299:866,84,654,17,76,616,302,58,8,29
20304:58,29,302,616,17,654,76,8,84,866
20305:76,84,17,8,866,58,29,302,654,616
20316:84,81,866,654,616,29,70,76,8,302
20319:8,29,654,616,84,76,866,302,58,17
20322:17,58,84,866,76,302,616,8,654,29
20327:58,616,76,866,654,29,17,8,84,302
20333:866,29,8,76,58,302,616,17,84,654
20334:29,616,17,8,58,866,650,302,84,654
20360:84,29,616,650,58,17,76,81,8,70
20378:84,616,76,866,302,8,58,654,650,29
20379:58,302,29,866,8,654,76,84,616,17
20380:654,616,866,8,29,17,76,58,302,650
20381:654,84,17,76,29,616,8,866,58,302
20394:654,616,17,8,866,76,84,29,302,58
20395:29,302,866,76,58,654,8,616,84,17
20409:76,866,302,58,29,84,8,17,654,616
20420:866,76,58,616,302,29,8,654,17,84
20438:8,866,654,58,76,302,84,616,17,29
20439:8,616,17,302,58,654,84,76,866,29
20440:84,302,866,654,58,17,8,76,29,616
